<unk>	0
<s>	0
</s>	0
▁I	-3.5279
▁to	-3.70556
▁the	-3.84327
▁a	-4.04887
▁i	-4.28602
▁my	-4.39768
▁and	-4.40091
s	-4.41574
▁you	-4.45255
▁it	-4.4647
▁is	-4.65139
▁in	-4.67187
▁for	-4.68019
▁s	-4.72124
▁t	-4.78494
▁of	-4.84801
▁on	-4.95645
▁me	-4.97843
▁that	-5.03757
▁m	-5.05441
▁so	-5.13823
▁have	-5.14438
▁be	-5.2846
▁but	-5.30822
▁with	-5.31905
▁at	-5.39903
▁was	-5.42422
▁just	-5.44905
▁not	-5.50005
▁up	-5.57781
▁this	-5.61811
▁can	-5.62042
▁now	-5.62979
▁out	-5.64636
▁day	-5.64821
▁get	-5.67486
▁all	-5.68748
▁like	-5.6891
▁are	-5.73146
▁good	-5.76009
▁go	-5.76038
▁quot	-5.76753
▁do	-5.85603
▁today	-5.88576
▁work	-5.89251
▁2	-5.89816
▁your	-5.91985
▁no	-5.94304
▁too	-5.94672
ing	-6.00454
▁going	-6.03222
▁love	-6.03441
▁got	-6.03495
▁from	-6.03684
▁time	-6.04966
▁u	-6.05275
▁back	-6.09064
▁we	-6.10298
▁know	-6.10764
▁one	-6.12947
▁amp	-6.16252
▁about	-6.16449
▁will	-6.17903
▁am	-6.19726
▁what	-6.19968
▁really	-6.23358
▁don	-6.23827
▁see	-6.24796
▁some	-6.25364
ed	-6.25494
▁had	-6.2923
▁re	-6.29844
▁3	-6.31979
▁night	-6.32384
▁want	-6.32871
▁there	-6.33601
▁lol	-6.34327
▁think	-6.34563
▁im	-6.34643
▁ll	-6.34723
y	-6.36971
▁It	-6.37316
▁home	-6.39296
▁new	-6.42007
▁still	-6.43733
▁when	-6.45344
▁an	-6.46002
▁much	-6.46256
▁more	-6.46551
▁here	-6.46722
▁if	-6.46871
▁they	-6.48057
▁well	-6.50311
▁how	-6.51108
▁miss	-6.51455
▁as	-6.51908
▁he	-6.52206
▁need	-6.52482
▁its	-6.52821
▁off	-6.54865
▁last	-6.55619
▁tomorrow	-6.56084
d	-6.5793
▁been	-6.59624
▁her	-6.60902
▁has	-6.60979
▁then	-6.60982
▁My	-6.62771
▁or	-6.63441
▁1	-6.658
▁feel	-6.67104
▁again	-6.67278
▁The	-6.67643
▁morning	-6.68744
▁great	-6.6921
▁ve	-6.71446
▁sleep	-6.72558
▁fun	-6.72691
▁Just	-6.73099
▁You	-6.74834
e	-6.75584
▁4	-6.76015
▁sad	-6.76256
▁right	-6.77335
▁would	-6.78621
▁bad	-6.80059
▁hope	-6.80491
▁she	-6.81087
▁A	-6.82194
▁by	-6.82567
▁only	-6.82943
▁tonight	-6.83061
▁haha	-6.83184
▁over	-6.84519
▁make	-6.85248
▁them	-6.85268
▁wish	-6.86695
▁way	-6.87599
t	-6.88136
▁though	-6.88716
▁twitter	-6.88981
▁very	-6.90285
▁come	-6.91665
▁better	-6.94184
▁did	-6.94195
er	-6.94576
▁oh	-6.96413
▁week	-6.96714
▁bed	-6.96953
▁wait	-6.97379
▁gonna	-6.98206
▁should	-6.98943
▁could	-6.99091
n	-7.00363
▁thanks	-7.00937
a	-7.00965
in	-7.01334
▁d	-7.01546
▁getting	-7.02152
▁nice	-7.03656
▁D	-7.03703
▁why	-7.0536
▁people	-7.06532
▁school	-7.07087
▁So	-7.08182
▁him	-7.09771
▁sorry	-7.09891
▁didn	-7.10301
▁But	-7.12383
▁lt	-7.13057
▁down	-7.13073
▁happy	-7.13513
▁And	-7.13515
▁hate	-7.13837
▁weekend	-7.15055
▁even	-7.16943
ly	-7.17225
▁after	-7.17419
▁No	-7.17454
▁days	-7.17575
▁Good	-7.1877
▁were	-7.19553
▁soon	-7.19685
▁next	-7.20515
▁watching	-7.21267
▁dont	-7.22266
▁Oh	-7.22736
▁who	-7.24538
▁That	-7.2507
▁say	-7.2543
▁Thanks	-7.25715
▁little	-7.25795
▁take	-7.26597
▁long	-7.2689
▁never	-7.28108
▁sick	-7.28403
▁wanna	-7.29094
▁cant	-7.29199
i	-7.2957
▁show	-7.30345
th	-7.30424
o	-7.30609
▁watch	-7.30889
▁awesome	-7.31771
▁tired	-7.32549
▁n	-7.32983
▁x	-7.32997
▁We	-7.33219
▁his	-7.3337
▁5	-7.33586
▁yeah	-7.33636
▁thing	-7.34093
▁doing	-7.34828
▁everyone	-7.35265
▁first	-7.3527
▁being	-7.35406
▁working	-7.36619
▁best	-7.37021
r	-7.3712
▁than	-7.37707
▁life	-7.37868
▁our	-7.38372
▁LOL	-7.38502
▁w	-7.38503
▁S	-7.38957
▁find	-7.39025
▁done	-7.39374
▁already	-7.39887
▁sure	-7.4017
▁any	-7.40346
▁having	-7.41273
▁friends	-7.41792
▁something	-7.42757
▁always	-7.43479
▁won	-7.44445
▁phone	-7.45214
▁guys	-7.45394
▁b	-7.45871
▁ready	-7.47455
▁feeling	-7.48105
▁man	-7.48696
▁yet	-7.48762
▁cool	-7.48791
▁made	-7.49164
▁hours	-7.49683
▁What	-7.50026
▁because	-7.50285
▁look	-7.50389
▁before	-7.50545
h	-7.5111
▁ur	-7.51189
▁us	-7.5219
▁let	-7.54207
▁where	-7.54718
▁house	-7.54883
▁yes	-7.55509
am	-7.55878
▁ever	-7.56328
▁away	-7.56507
▁another	-7.56546
▁went	-7.57892
▁old	-7.58281
▁movie	-7.58374
▁pretty	-7.59107
▁ok	-7.59589
▁please	-7.60634
▁T	-7.60879
▁Not	-7.61146
▁friend	-7.61925
▁early	-7.62124
▁Can	-7.62502
▁Twitter	-7.62589
▁bit	-7.6282
▁ya	-7.62938
▁tweet	-7.63069
▁into	-7.63596
▁help	-7.64741
▁looking	-7.64791
▁left	-7.64993
▁year	-7.65105
l	-7.65645
▁summer	-7.65813
▁start	-7.66449
▁things	-7.66716
g	-7.68365
▁thought	-7.68388
▁while	-7.68895
▁car	-7.69013
▁r	-7.69903
▁How	-7.70053
▁rain	-7.70304
▁other	-7.70478
z	-7.70873
▁B	-7.72127
▁amazing	-7.72201
▁keep	-7.72341
es	-7.72654
▁follow	-7.72659
▁later	-7.72986
▁stuff	-7.72994
▁same	-7.73327
▁guess	-7.73361
▁someone	-7.73444
S	-7.73556
▁hear	-7.73961
▁try	-7.74
▁play	-7.74309
▁sun	-7.74627
▁Have	-7.74681
▁hot	-7.74853
k	-7.74862
▁coming	-7.75009
▁lost	-7.75083
▁Now	-7.75449
▁Im	-7.75477
▁hey	-7.75779
▁6	-7.75881
▁weather	-7.75895
▁missed	-7.75941
▁trying	-7.76232
▁sucks	-7.76616
▁baby	-7.76864
▁doesn	-7.76884
▁10	-7.77186
▁P	-7.77244
▁song	-7.774
▁This	-7.77549
▁girl	-7.77837
▁live	-7.78706
▁thank	-7.7951
▁bored	-7.80034
▁hard	-7.80359
▁U	-7.80383
▁big	-7.81441
▁party	-7.81468
▁said	-7.81537
▁two	-7.81603
▁game	-7.81683
▁com	-7.81763
▁tell	-7.81903
m	-7.82229
▁those	-7.82474
▁few	-7.83112
▁c	-7.83818
▁until	-7.83938
▁yesterday	-7.84115
▁lot	-7.84174
▁since	-7.84513
▁O	-7.84656
▁head	-7.84699
▁actually	-7.84818
▁myself	-7.85111
▁excited	-7.85348
st	-7.8547
▁around	-7.85476
▁saw	-7.8591
A	-7.85965
▁nothing	-7.86349
▁does	-7.8642
▁late	-7.86649
▁might	-7.87754
▁makes	-7.87903
▁He	-7.88205
▁maybe	-7.88216
▁Hope	-7.89004
▁Going	-7.89089
▁birthday	-7.90372
▁job	-7.90787
▁read	-7.91031
▁N	-7.91489
▁many	-7.91495
▁Well	-7.9159
▁cold	-7.91875
▁8	-7.91994
▁put	-7.92721
▁Hey	-7.92734
▁music	-7.92761
▁such	-7.93262
▁their	-7.93357
▁finally	-7.93902
▁call	-7.9397
▁looks	-7.94259
▁7	-7.94563
▁world	-7.94836
▁tho	-7.94895
▁far	-7.94945
▁30	-7.95355
▁o	-7.95749
▁also	-7.95948
p	-7.96073
▁luck	-7.96418
▁E	-7.96898
D	-7.97359
▁hair	-7.97521
▁talk	-7.97531
▁C	-7.97548
▁gone	-7.97599
▁give	-7.97629
▁least	-7.97953
▁use	-7.98726
▁waiting	-7.98745
▁mom	-7.98969
▁Happy	-7.99048
▁damn	-7.99268
▁glad	-7.99292
▁found	-7.99484
▁At	-7.99531
▁eat	-7.99887
▁leave	-7.99972
▁till	-8.00254
▁end	-8.00376
▁anything	-8.00731
▁If	-8.01314
▁Why	-8.01573
▁mean	-8.01805
▁p	-8.01925
▁stop	-8.02592
▁must	-8.02597
▁beautiful	-8.02684
▁M	-8.02738
▁gt	-8.02833
▁hour	-8.0286
▁hurts	-8.03071
▁food	-8.03318
▁making	-8.03886
▁G	-8.04087
u	-8.04113
▁cute	-8.04118
▁haven	-8.04643
w	-8.04846
▁check	-8.04876
▁Thank	-8.05374
▁lunch	-8.05834
▁e	-8.06014
▁forward	-8.06099
▁believe	-8.06486
▁gotta	-8.07297
▁In	-8.07657
▁most	-8.077
▁dinner	-8.08001
▁free	-8.08316
ie	-8.08525
▁wanted	-8.08602
▁shit	-8.08703
▁family	-8.08816
▁followers	-8.09589
▁isn	-8.09776
▁funny	-8.1012
▁R	-8.10188
▁Love	-8.10392
▁They	-8.11037
▁without	-8.11158
▁woke	-8.12102
al	-8.12273
▁yay	-8.12761
▁Yeah	-8.13002
▁may	-8.13196
▁sounds	-8.13317
▁outside	-8.13416
▁Sorry	-8.13877
▁missing	-8.1402
▁video	-8.1412
▁almost	-8.1415
▁everything	-8.14154
▁cause	-8.14266
▁Its	-8.14434
▁real	-8.14822
▁enough	-8.14913
▁through	-8.15265
▁buy	-8.15429
▁times	-8.15581
▁anymore	-8.15777
▁room	-8.16269
▁ha	-8.16579
▁L	-8.16897
1	-8.17087
▁every	-8.17392
▁place	-8.17579
▁wrong	-8.18083
▁finished	-8.18332
2	-8.1881
▁which	-8.19032
▁playing	-8.19343
b	-8.20554
ers	-8.20589
▁thats	-8.20963
▁mine	-8.21272
▁didnt	-8.21364
▁thinking	-8.21515
▁these	-8.21964
▁coffee	-8.22137
▁Got	-8.22166
▁pic	-8.22582
f	-8.22902
▁On	-8.22978
▁sweet	-8.23132
▁win	-8.23284
▁F	-8.23306
▁money	-8.23479
▁okay	-8.23917
▁ill	-8.24046
▁Me	-8.24107
▁stay	-8.24132
▁weeks	-8.24632
▁Morning	-8.24987
▁She	-8.25034
▁class	-8.25493
▁Still	-8.25742
▁following	-8.26362
▁anyone	-8.2656
c	-8.26664
▁Day	-8.2711
▁totally	-8.27287
▁Don	-8.27538
▁came	-8.27843
▁hi	-8.28034
3	-8.28089
▁poor	-8.28446
▁wow	-8.28929
▁Haha	-8.28941
▁seen	-8.28985
▁probably	-8.29401
▁listening	-8.29459
▁9	-8.29529
▁whole	-8.29774
▁Yes	-8.29831
▁tweets	-8.29874
▁omg	-8.29923
▁post	-8.30109
▁enjoy	-8.30222
▁stupid	-8.30587
▁Watching	-8.30834
▁book	-8.31229
▁busy	-8.31621
x	-8.31646
▁name	-8.3192
▁exam	-8.3195
▁xx	-8.31966
▁YOU	-8.32498
▁idea	-8.32975
▁aww	-8.32994
▁says	-8.33049
▁face	-8.33173
▁K	-8.33404
▁rest	-8.33824
▁hurt	-8.3422
▁Had	-8.34392
ee	-8.34919
▁kids	-8.35053
on	-8.3531
▁ago	-8.35469
▁able	-8.355
▁New	-8.3563
▁lovely	-8.35724
▁else	-8.36201
▁guy	-8.36209
▁super	-8.36362
▁sooo	-8.36516
▁run	-8.36548
T	-8.36677
▁welcome	-8.36701
▁dad	-8.36768
▁half	-8.36812
▁meet	-8.3728
▁y	-8.37446
▁kinda	-8.37477
▁Hi	-8.37727
▁Back	-8.37893
▁hahaha	-8.37984
▁OMG	-8.37993
▁All	-8.38544
▁SO	-8.38715
N	-8.38865
▁iPhone	-8.38911
▁both	-8.39011
▁years	-8.39033
▁crazy	-8.39312
▁ugh	-8.39724
▁headache	-8.39838
▁part	-8.4016
▁eating	-8.40462
▁Do	-8.40578
▁beach	-8.40981
▁own	-8.41319
▁To	-8.41417
▁computer	-8.4184
▁heart	-8.41862
G	-8.42074
▁wants	-8.42494
▁wasn	-8.42575
▁trip	-8.42632
▁send	-8.42724
▁kind	-8.42899
▁took	-8.42922
▁used	-8.43016
▁blog	-8.43123
▁cuz	-8.43127
▁Sunday	-8.43146
▁either	-8.43334
▁Friday	-8.43938
▁God	-8.43988
▁full	-8.44422
▁mind	-8.44444
▁taking	-8.44792
▁Monday	-8.44806
▁forgot	-8.45535
▁hell	-8.45648
▁hit	-8.46105
▁shopping	-8.4675
▁break	-8.4704
▁office	-8.47086
▁Lol	-8.47124
▁Yay	-8.47549
▁www	-8.47632
▁alone	-8.47675
▁dog	-8.47856
▁g	-8.48091
▁true	-8.48215
nd	-8.48462
▁12	-8.48498
▁raining	-8.49279
▁news	-8.49297
▁W	-8.49523
en	-8.49717
▁There	-8.49798
▁course	-8.49858
an	-8.49895
▁heard	-8.5068
▁cry	-8.51058
▁remember	-8.51226
▁boy	-8.51328
▁reading	-8.51552
▁talking	-8.51712
▁soo	-8.51942
v	-8.52159
▁wont	-8.52465
▁wake	-8.52614
▁100	-8.52935
▁k	-8.52953
▁pay	-8.53112
le	-8.53152
day	-8.53214
▁couldn	-8.53342
▁THE	-8.53395
▁started	-8.53411
▁picture	-8.53481
▁person	-8.53487
▁til	-8.54008
▁pain	-8.54012
▁20	-8.54094
▁LOVE	-8.5411
▁girls	-8.54189
▁add	-8.54264
▁TO	-8.54432
▁fine	-8.54911
▁watched	-8.55072
▁god	-8.55235
▁Wish	-8.5532
▁seems	-8.55647
▁tried	-8.56131
▁using	-8.56647
▁once	-8.56896
▁stuck	-8.57076
▁online	-8.57275
▁walk	-8.57571
▁train	-8.57819
▁fan	-8.57843
▁leaving	-8.57956
▁seeing	-8.58053
▁Off	-8.58187
▁goes	-8.58213
▁quite	-8.58277
▁Great	-8.58434
▁told	-8.58519
▁care	-8.58755
▁11	-8.58813
▁change	-8.58857
▁lots	-8.58974
▁Will	-8.59267
▁pics	-8.59472
B	-8.59787
it	-8.59892
▁drive	-8.59898
▁boo	-8.60194
▁awake	-8.60565
▁minutes	-8.60599
▁broke	-8.60786
▁Today	-8.61069
▁Please	-8.6111
▁Wow	-8.61159
▁asleep	-8.61165
▁hehe	-8.61272
4	-8.61275
▁shower	-8.61333
Y	-8.61399
▁breakfast	-8.61924
▁concert	-8.62055
▁month	-8.62233
▁0	-8.62508
▁Time	-8.62572
▁season	-8.626
▁site	-8.62833
▁feels	-8.62851
L	-8.62913
▁open	-8.6292
▁link	-8.62958
▁update	-8.6303
▁boring	-8.63155
▁Ugh	-8.634
▁called	-8.63417
▁internet	-8.63449
▁mad	-8.63476
▁ass	-8.63641
re	-8.63825
▁needs	-8.64404
▁study	-8.64477
▁sister	-8.6475
▁favorite	-8.64791
▁reply	-8.65055
▁sunny	-8.65746
▁l	-8.65806
pm	-8.66428
▁friday	-8.66874
or	-8.67191
el	-8.67324
▁fuck	-8.67716
▁afternoon	-8.67781
C	-8.68042
ah	-8.68055
O	-8.68191
▁bought	-8.68394
▁Go	-8.68532
▁hungry	-8.68683
▁Too	-8.68706
▁instead	-8.68856
▁cut	-8.68937
▁da	-8.69102
▁f	-8.69226
▁water	-8.69334
▁text	-8.69535
▁hopefully	-8.69695
▁sitting	-8.69853
▁ask	-8.70004
▁J	-8.70425
▁Get	-8.70698
▁ME	-8.70719
▁move	-8.70835
▁For	-8.71043
▁nap	-8.71118
▁anyway	-8.71531
F	-8.71833
▁jealous	-8.72072
▁Damn	-8.72167
us	-8.72173
▁together	-8.72232
▁crap	-8.724
▁sleeping	-8.72845
▁wonderful	-8.72927
▁Maybe	-8.73045
▁bring	-8.73447
▁side	-8.73539
▁sore	-8.73712
▁suck	-8.73802
▁problem	-8.7396
▁tv	-8.74051
▁finish	-8.74064
▁write	-8.74173
▁starting	-8.74217
▁couple	-8.74384
▁awww	-8.74387
▁Getting	-8.74539
▁15	-8.74549
▁dream	-8.74569
P	-8.7481
▁Saturday	-8.74956
▁drink	-8.75143
est	-8.75482
▁email	-8.75554
▁v	-8.75615
ar	-8.75835
▁em	-8.76324
▁happened	-8.76411
▁fall	-8.76505
▁brother	-8.76701
▁set	-8.76723
▁bout	-8.76761
▁la	-8.76811
▁laptop	-8.77281
▁ice	-8.77321
▁happen	-8.77612
▁NOT	-8.77718
▁dude	-8.7772
▁homework	-8.77826
▁visit	-8.78136
▁H	-8.78388
▁Your	-8.78601
▁means	-8.78609
▁exams	-8.78767
▁red	-8.78806
ic	-8.78852
▁MY	-8.78917
▁ppl	-8.78939
▁album	-8.78952
▁reason	-8.7905
▁loved	-8.79111
▁cat	-8.79153
▁yea	-8.7921
▁sound	-8.79604
▁Re	-8.79763
▁weird	-8.80091
▁close	-8.80439
▁btw	-8.80489
▁dead	-8.80664
ies	-8.80746
▁died	-8.80764
▁lucky	-8.80973
▁sunday	-8.81108
▁high	-8.81262
▁evening	-8.81501
▁Ok	-8.81547
▁mood	-8.8155
▁town	-8.81941
W	-8.8198
ness	-8.81985
▁list	-8.82136
▁tea	-8.8218
▁seriously	-8.8228
▁cream	-8.82426
▁running	-8.82492
▁seem	-8.83157
▁de	-8.83208
na	-8.83265
▁nite	-8.83387
H	-8.83434
▁IT	-8.83525
▁One	-8.83534
▁na	-8.8367
ch	-8.83703
▁months	-8.8378
K	-8.83823
M	-8.83843
▁catch	-8.84052
▁eyes	-8.84104
nt	-8.84111
▁movies	-8.84223
▁less	-8.84227
▁test	-8.84237
▁Up	-8.84676
▁lil	-8.84801
▁listen	-8.84811
▁soooo	-8.84849
▁NO	-8.85053
▁turn	-8.85425
▁moment	-8.85704
▁final	-8.85739
▁under	-8.85793
▁monday	-8.86293
▁gets	-8.86852
▁definitely	-8.87003
▁hang	-8.87023
▁hand	-8.87338
▁Last	-8.87379
▁tour	-8.87472
▁short	-8.87525
▁gym	-8.8753
▁agree	-8.87759
▁pick	-8.87809
▁Did	-8.8833
▁songs	-8.88456
▁Man	-8.8855
▁Nice	-8.88617
▁past	-8.88665
▁church	-8.88935
R	-8.88954
▁fucking	-8.89193
▁top	-8.89214
▁comes	-8.89229
▁Be	-8.89348
▁fast	-8.89529
ting	-8.89643
ING	-8.89674
able	-8.89918
▁AND	-8.90153
▁enjoying	-8.9017
▁meeting	-8.9022
▁Really	-8.90223
▁tickets	-8.90268
at	-8.90312
▁goin	-8.90471
▁hoping	-8.90627
▁Y	-8.90712
▁Was	-8.90781
▁rock	-8.91089
▁Let	-8.91156
▁dear	-8.91348
▁dance	-8.91407
▁Ha	-8.9144
ll	-8.9149
▁ride	-8.91595
▁pool	-8.91672
▁ma	-8.91823
▁clean	-8.92182
▁understand	-8.9234
▁boys	-8.92375
▁bye	-8.92465
▁store	-8.92673
▁page	-8.92829
▁knew	-8.92881
▁hello	-8.92951
▁Night	-8.93039
▁h	-8.9326
▁account	-8.93334
▁studying	-8.93371
8	-8.93396
▁via	-8.9346
▁second	-8.93611
▁worth	-8.93699
▁interesting	-8.9374
▁When	-8.94004
▁Finally	-8.94176
▁Need	-8.94224
ne	-8.94234
▁Where	-8.9443
to	-8.94831
▁word	-8.94999
▁throat	-8.95097
▁supposed	-8.95097
▁facebook	-8.95101
▁broken	-8.95321
ng	-8.95595
ty	-8.95675
▁sigh	-8.95889
▁story	-8.95986
▁sometimes	-8.96553
▁plan	-8.96593
▁chocolate	-8.96715
▁smile	-8.96817
▁saying	-8.96862
▁perfect	-8.96867
ry	-8.96954
▁LA	-8.97284
▁June	-8.97422
ma	-8.97452
j	-8.9753
▁lmao	-8.97986
ve	-8.98327
▁slow	-8.98701
▁wedding	-8.99149
▁Then	-8.99287
▁Aww	-8.9932
▁forget	-8.99349
▁point	-8.99451
▁writing	-8.99508
▁Glad	-8.99614
▁ah	-9.00078
man	-9.00116
▁flu	-9.00257
▁un	-9.00323
ro	-9.00361
ur	-9.00636
ter	-9.00698
▁Who	-9.00918
▁Very	-9.01128
▁sent	-9.01468
age	-9.01631
▁date	-9.01842
▁saturday	-9.02308
▁j	-9.02395
▁pictures	-9.02491
eee	-9.0255
▁V	-9.02689
rd	-9.0274
I	-9.02813
▁works	-9.02878
▁chat	-9.02916
▁gave	-9.02965
▁due	-9.03114
▁ate	-9.03215
▁X	-9.0342
▁chance	-9.03517
E	-9.03522
less	-9.03558
▁bus	-9.03804
▁worse	-9.03867
▁city	-9.0394
ling	-9.03964
▁worst	-9.04051
▁xxx	-9.04118
▁Are	-9.04313
▁sleepy	-9.04506
▁wonder	-9.04656
▁longer	-9.04764
▁Only	-9.04846
ish	-9.04941
me	-9.05048
co	-9.05386
ton	-9.05499
te	-9.05596
▁wear	-9.05838
▁goodnight	-9.06008
▁Am	-9.06109
▁aw	-9.06194
▁three	-9.06244
▁support	-9.06275
▁black	-9.06302
up	-9.06503
▁dreams	-9.06543
▁ones	-9.06567
▁sunshine	-9.06568
▁TV	-9.06776
▁horrible	-9.06831
▁moving	-9.06835
▁rather	-9.06945
▁special	-9.07018
▁line	-9.07205
▁fell	-9.0733
▁wouldn	-9.07369
▁upset	-9.07413
▁ive	-9.07527
▁spend	-9.07608
▁fail	-9.0765
▁Or	-9.07927
ia	-9.07969
▁Work	-9.08208
ta	-9.08247
ine	-9.0826
▁easy	-9.08336
▁Sad	-9.08614
▁YAY	-9.08639
▁doesnt	-9.0875
ED	-9.08972
et	-9.09233
▁scared	-9.0932
▁warm	-9.0936
V	-9.09539
as	-9.09608
▁tweeting	-9.09635
▁vacation	-9.09927
▁heading	-9.10013
▁earlier	-9.10041
▁mum	-9.1007
da	-9.10136
is	-9.102
U	-9.10652
▁air	-9.1079
▁aren	-9.1103
▁updates	-9.11066
ck	-9.11067
▁bet	-9.11526
▁college	-9.11528
▁driving	-9.11532
il	-9.11539
▁body	-9.11571
▁band	-9.11776
▁worry	-9.11877
▁bar	-9.11947
▁youtube	-9.11953
▁parents	-9.12108
▁figure	-9.12212
▁voice	-9.12281
▁message	-9.12386
▁photo	-9.12657
▁fix	-9.12879
▁plans	-9.1297
▁bro	-9.13024
▁Home	-9.13184
▁Hello	-9.13448
▁fair	-9.13466
▁shop	-9.13581
▁website	-9.13624
▁loving	-9.13738
▁cleaning	-9.14026
▁See	-9.14108
▁stomach	-9.14203
▁pre	-9.14219
▁flight	-9.14239
▁team	-9.14259
▁Looking	-9.14356
▁holiday	-9.14426
▁die	-9.1462
▁words	-9.14649
▁during	-9.14846
▁mother	-9.14874
la	-9.14929
0	-9.14984
▁IS	-9.15
▁different	-9.15182
▁Trying	-9.15264
▁answer	-9.1527
▁Another	-9.15345
▁xD	-9.15393
▁camera	-9.15469
▁learn	-9.15544
▁park	-9.15873
mo	-9.15995
▁drinking	-9.1605
li	-9.16277
▁eye	-9.16303
▁Ah	-9.16327
▁app	-9.16346
▁boyfriend	-9.16377
ce	-9.16438
▁lazy	-9.16793
▁bike	-9.1691
ity	-9.17654
▁myspace	-9.17846
▁dress	-9.1794
▁bday	-9.17959
▁power	-9.18337
sh	-9.18665
ra	-9.18746
ment	-9.1882
▁join	-9.18849
▁forever	-9.18849
ate	-9.18961
▁case	-9.19217
▁inside	-9.19328
▁green	-9.19364
▁paper	-9.19406
▁laugh	-9.19488
▁shirt	-9.19643
oo	-9.19707
ion	-9.19858
▁kid	-9.20092
▁number	-9.20562
▁fans	-9.20809
▁Goodnight	-9.20892
ri	-9.20899
▁cannot	-9.2114
▁cake	-9.21188
no	-9.21379
▁card	-9.21603
▁cos	-9.21634
▁Also	-9.2182
▁hug	-9.21962
▁lady	-9.22082
ist	-9.2217
▁Poor	-9.22182
hh	-9.22205
rs	-9.22234
▁looked	-9.22358
▁small	-9.22423
▁shows	-9.22452
ley	-9.2298
▁vote	-9.22981
▁safe	-9.23006
▁loves	-9.23431
▁meant	-9.23525
▁Gonna	-9.23544
▁May	-9.23723
▁airport	-9.23896
be	-9.23986
▁episode	-9.23992
▁co	-9.24065
▁near	-9.24153
▁wit	-9.24297
▁son	-9.24549
▁road	-9.24838
ation	-9.24927
▁hospital	-9.25059
▁photos	-9.25189
▁beer	-9.25216
▁Enjoy	-9.2522
▁havent	-9.25311
▁GO	-9.25344
▁garden	-9.25402
ir	-9.2542
▁luv	-9.25608
▁spent	-9.25788
▁Feeling	-9.25886
ts	-9.26016
▁yourself	-9.26783
ent	-9.26816
▁shoes	-9.2695
▁crying	-9.26974
ive	-9.27057
▁Birthday	-9.27065
▁UP	-9.27081
▁slept	-9.27157
▁50	-9.27317
▁24	-9.27363
▁Come	-9.27449
▁white	-9.27486
▁sign	-9.27554
▁beat	-9.276
▁project	-9.27677
▁wondering	-9.27836
▁awards	-9.28219
▁front	-9.28225
▁tummy	-9.28329
gg	-9.28334
▁London	-9.28409
▁mo	-9.28546
▁each	-9.28657
▁liked	-9.28842
▁huge	-9.28936
▁proud	-9.29163
▁fact	-9.29305
▁shall	-9.29562
▁felt	-9.29568
▁Star	-9.29583
▁chicken	-9.29695
▁Miss	-9.29738
▁hugs	-9.29796
▁DM	-9.29975
▁officially	-9.30098
▁mail	-9.30175
▁ALL	-9.3019
X	-9.306
▁kill	-9.30602
▁Feel	-9.30665
▁pass	-9.3067
se	-9.3084
▁box	-9.30863
▁AM	-9.30939
▁annoying	-9.30956
▁save	-9.3097
▁babe	-9.31217
tt	-9.31292
▁Awesome	-9.31346
▁lose	-9.31478
▁needed	-9.31478
▁pizza	-9.31538
▁Has	-9.31578
▁decided	-9.31803
yy	-9.31933
lo	-9.3206
▁feet	-9.32109
▁sit	-9.32232
▁games	-9.32458
▁wine	-9.32915
▁US	-9.33012
▁Looks	-9.33041
▁Having	-9.33212
▁question	-9.33219
▁yo	-9.3336
▁books	-9.33429
▁As	-9.33431
id	-9.3352
ey	-9.33756
um	-9.33759
▁rainy	-9.34079
▁Working	-9.34214
ow	-9.34249
▁drunk	-9.34432
▁Gotta	-9.34657
▁deal	-9.34676
▁With	-9.34737
▁hanging	-9.34776
▁star	-9.34782
▁lonely	-9.34818
▁unfortunately	-9.34877
▁iphone	-9.34989
▁round	-9.3533
▁UK	-9.35457
▁minute	-9.35546
▁exciting	-9.35618
▁Omg	-9.3562
ful	-9.35644
▁hun	-9.35665
▁film	-9.35711
▁met	-9.35754
▁sat	-9.35834
son	-9.36022
▁starts	-9.36087
▁wishing	-9.3617
▁order	-9.36429
▁18	-9.36471
▁ahh	-9.36712
▁share	-9.36727
▁Been	-9.36782
▁realized	-9.36815
▁version	-9.3683
▁behind	-9.3688
land	-9.36903
▁Once	-9.36923
▁living	-9.36949
▁light	-9.3697
▁shame	-9.36998
▁graduation	-9.37032
ha	-9.37049
ted	-9.37069
ut	-9.37112
▁web	-9.37122
▁keeps	-9.37204
▁lame	-9.37363
▁fat	-9.375
▁taken	-9.37526
▁yummy	-9.37597
▁turned	-9.3761
▁download	-9.37637
▁clothes	-9.37904
▁played	-9.37909
▁Life	-9.38214
▁Awww	-9.3841
do	-9.38438
▁Hopefully	-9.38524
▁worked	-9.38553
▁along	-9.38702
▁interview	-9.38817
▁Like	-9.38818
▁happens	-9.38827
▁isnt	-9.3884
▁comment	-9.38862
▁Sounds	-9.38908
▁idk	-9.38934
▁Aw	-9.39251
▁def	-9.39342
▁blue	-9.39386
▁ex	-9.39457
dy	-9.39518
rr	-9.39574
▁Boo	-9.39685
▁mac	-9.39949
▁radio	-9.40048
▁gorgeous	-9.4008
ol	-9.40101
▁hubby	-9.40144
▁english	-9.40237
▁Of	-9.40281
▁First	-9.4029
▁art	-9.40353
▁business	-9.40398
▁sold	-9.40614
▁Listening	-9.40914
▁Okay	-9.40996
▁except	-9.41033
▁club	-9.41082
▁apparently	-9.41084
▁hmm	-9.41311
▁IN	-9.41314
▁especially	-9.414
▁Check	-9.41638
▁Tweet	-9.4174
ant	-9.41772
▁plus	-9.42062
▁service	-9.42348
▁bitch	-9.42397
▁guitar	-9.42415
▁OK	-9.42532
▁finals	-9.42612
▁scary	-9.42612
▁jus	-9.42622
ice	-9.42702
▁plane	-9.429
▁La	-9.43027
▁upload	-9.43105
▁Out	-9.43108
▁Some	-9.43192
▁sum	-9.43273
▁company	-9.43278
▁THAT	-9.43402
▁ahead	-9.4349
▁alright	-9.4355
▁killing	-9.43636
▁self	-9.43702
▁touch	-9.43888
out	-9.43936
▁St	-9.44
▁sis	-9.44137
▁extra	-9.44261
▁absolutely	-9.44268
▁Make	-9.44417
▁single	-9.44719
▁Welcome	-9.44751
▁Waiting	-9.44918
▁random	-9.45063
▁mins	-9.45272
▁en	-9.45329
hhh	-9.4549
▁awful	-9.45563
▁giving	-9.45582
▁wishes	-9.4563
▁screen	-9.45665
▁About	-9.45746
ian	-9.45804
▁posted	-9.45911
▁wife	-9.46148
▁Mr	-9.46185
▁xoxo	-9.46231
▁ipod	-9.46247
▁40	-9.46341
▁congrats	-9.46342
▁asked	-9.46379
▁shoot	-9.46395
ER	-9.46404
ak	-9.4666
▁hold	-9.46723
▁terrible	-9.46861
▁le	-9.47037
▁alot	-9.47067
▁Mac	-9.47106
▁bag	-9.47388
▁David	-9.47664
▁Congrats	-9.47887
▁17	-9.47936
▁Nothing	-9.48021
▁passed	-9.48334
eeee	-9.48497
▁type	-9.48607
▁profile	-9.48617
▁pro	-9.48662
▁lately	-9.4872
▁whats	-9.48799
▁cup	-9.4884
dd	-9.48895
▁fly	-9.4895
▁16	-9.48955
▁exactly	-9.48976
▁13	-9.49108
os	-9.4925
▁revision	-9.49264
▁nose	-9.49428
▁yep	-9.49571
de	-9.49606
▁ON	-9.49752
▁videos	-9.49834
IN	-9.50365
ally	-9.50441
▁ran	-9.50464
▁dark	-9.50522
▁thinks	-9.5053
▁Mo	-9.50589
▁fam	-9.50778
▁door	-9.50836
▁everybody	-9.50874
▁wat	-9.50967
▁eh	-9.51006
yyy	-9.5116
▁packing	-9.51265
▁MTV	-9.51347
ang	-9.51364
em	-9.51378
▁trouble	-9.51456
▁camp	-9.51463
▁brain	-9.51519
ig	-9.51524
▁daughter	-9.51556
▁between	-9.51573
▁relaxing	-9.51586
▁Z	-9.51769
▁OH	-9.51813
go	-9.51846
▁cousin	-9.51889
▁dis	-9.51918
▁whatever	-9.51932
▁lets	-9.51951
▁singing	-9.51967
▁Big	-9.52047
▁aint	-9.5221
▁woo	-9.52361
▁foot	-9.52452
▁25	-9.52455
▁huh	-9.52554
▁mention	-9.52573
▁tan	-9.52851
ni	-9.52916
▁dying	-9.52942
▁fire	-9.53071
▁changed	-9.53138
▁prob	-9.53153
▁Co	-9.53285
▁ticket	-9.53291
▁Tuesday	-9.53358
▁19	-9.53359
▁gettin	-9.53361
min	-9.53454
▁Everyone	-9.53536
▁Here	-9.53612
▁fight	-9.53661
▁ba	-9.53669
▁waking	-9.53669
▁moon	-9.53737
▁DO	-9.53739
aaa	-9.53747
▁enjoyed	-9.53772
▁hrs	-9.53804
▁matter	-9.53878
▁quick	-9.54147
▁goodbye	-9.54223
▁gay	-9.54368
▁stand	-9.54414
▁completely	-9.54497
▁cook	-9.54547
▁coz	-9.54559
▁cheese	-9.54624
ina	-9.54744
▁XD	-9.54824
▁sort	-9.54895
▁fish	-9.54902
▁walking	-9.54906
▁country	-9.54989
▁IM	-9.55013
▁heat	-9.55069
▁REALLY	-9.55108
▁drop	-9.55184
▁somewhere	-9.55197
▁wearing	-9.55389
▁info	-9.55462
▁Keep	-9.55482
▁min	-9.55522
ps	-9.55548
▁thx	-9.55569
▁ball	-9.55587
▁fantastic	-9.55597
un	-9.55612
▁low	-9.55713
▁Ma	-9.55764
▁usually	-9.55855
▁mate	-9.55872
▁group	-9.56313
▁fit	-9.56371
▁sadly	-9.56548
▁14	-9.56587
▁Mom	-9.56625
▁serious	-9.5669
▁staying	-9.56761
ance	-9.56812
▁Never	-9.5691
pe	-9.56953
▁July	-9.56996
▁comp	-9.57095
▁closed	-9.57288
▁appreciate	-9.57304
▁bummed	-9.57389
mm	-9.57402
▁disappointed	-9.57471
▁shot	-9.57506
ated	-9.5753
▁traffic	-9.57575
▁ka	-9.57628
▁death	-9.57826
▁lo	-9.57858
▁Bad	-9.58086
▁NOW	-9.58128
▁worried	-9.58202
▁fever	-9.58213
▁ne	-9.58213
▁gr	-9.58247
▁Guess	-9.58392
▁hotel	-9.58505
▁Didn	-9.58512
▁Should	-9.58513
▁fixed	-9.58567
▁Best	-9.58636
▁chill	-9.5867
▁freaking	-9.58879
ul	-9.58913
▁al	-9.58967
▁Mother	-9.58974
ay	-9.59004
om	-9.59023
▁leg	-9.59181
▁vip	-9.59286
▁Cant	-9.59313
▁st	-9.59466
ac	-9.59612
▁Think	-9.59622
ous	-9.59682
▁hahah	-9.59742
▁ear	-9.59762
▁nope	-9.59768
im	-9.59883
▁window	-9.59888
▁caught	-9.59988
▁teeth	-9.60079
▁etc	-9.60086
▁practice	-9.60491
▁others	-9.60513
nite	-9.6064
▁After	-9.60685
▁problems	-9.60724
▁More	-9.60735
▁mommy	-9.60966
▁hands	-9.61137
bo	-9.61189
▁iPod	-9.61202
▁quiet	-9.61204
▁el	-9.61236
▁00	-9.61324
▁aY	-9.61447
▁mall	-9.61472
▁stopped	-9.61935
▁puppy	-9.62049
line	-9.62237
▁thru	-9.62306
▁ahhh	-9.62319
les	-9.6237
▁background	-9.62401
▁pack	-9.62407
▁Went	-9.62483
▁ended	-9.62756
▁fingers	-9.62835
▁hates	-9.62885
▁sexy	-9.62907
▁kick	-9.62918
▁kno	-9.63027
▁future	-9.631
▁indeed	-9.63166
▁dunno	-9.63434
▁21	-9.63457
▁FOR	-9.63662
▁Sweet	-9.63699
▁Cool	-9.63782
▁shut	-9.63789
▁nearly	-9.63875
▁speak	-9.6399
Z	-9.64029
▁Rock	-9.64081
▁possible	-9.64094
▁normal	-9.64217
▁math	-9.64284
▁con	-9.643
▁Someone	-9.64301
▁pissed	-9.64369
▁Even	-9.64629
▁per	-9.64633
▁exhausted	-9.64836
▁record	-9.64845
▁often	-9.64875
ba	-9.64877
nn	-9.64905
▁husband	-9.65032
▁Heading	-9.65153
▁Any	-9.65169
▁YES	-9.65535
▁BUT	-9.65581
▁Follow	-9.65635
▁classes	-9.65759
▁usual	-9.65783
▁storm	-9.65874
▁fav	-9.66064
▁cover	-9.66114
▁swimming	-9.66321
▁middle	-9.66507
▁dogs	-9.66507
ka	-9.66774
▁straight	-9.67069
▁young	-9.6714
ti	-9.67274
▁miley	-9.67336
▁sa	-9.67452
▁sell	-9.67457
▁Sun	-9.6753
▁Sitting	-9.67563
▁track	-9.67563
ho	-9.67607
▁fresh	-9.67669
▁An	-9.677
▁training	-9.67739
▁bank	-9.68001
▁Tomorrow	-9.68124
▁45	-9.68204
mp	-9.68267
▁history	-9.68324
▁cell	-9.68503
▁ho	-9.68707
per	-9.68729
▁woman	-9.68809
▁pink	-9.68852
▁double	-9.68945
▁confused	-9.68998
▁bloody	-9.69035
▁smell	-9.69088
▁Anyone	-9.69091
▁GOOD	-9.6916
▁Take	-9.69188
▁Summer	-9.69296
▁BBQ	-9.69509
▁Facebook	-9.69718
ard	-9.69876
▁silly	-9.69905
▁wet	-9.69958
▁School	-9.70142
▁z	-9.70229
ff	-9.70309
▁Hahaha	-9.70325
ot	-9.70543
▁mess	-9.70719
q	-9.70772
▁English	-9.70924
ooo	-9.70933
ca	-9.71036
▁Long	-9.71176
▁peeps	-9.71229
▁event	-9.71264
▁taste	-9.71282
by	-9.71292
ii	-9.71496
▁pop	-9.71602
▁plz	-9.7169
▁legs	-9.71756
▁PS	-9.71817
▁Thursday	-9.71933
▁BE	-9.71987
▁Movie	-9.72219
▁lay	-9.72293
▁Tell	-9.72299
mi	-9.72331
▁race	-9.72339
▁sense	-9.72361
▁yr	-9.72382
▁blah	-9.72413
▁Missing	-9.72458
one	-9.7246
▁sing	-9.72513
▁sooooo	-9.72524
▁ch	-9.72528
ary	-9.726
▁mouth	-9.72654
▁couldnt	-9.72795
▁available	-9.72799
▁cd	-9.72842
▁apple	-9.7292
▁knows	-9.73092
▁Car	-9.73152
▁twit	-9.73189
▁daddy	-9.73216
▁ache	-9.73241
▁hasn	-9.73277
▁doin	-9.7328
▁series	-9.73312
king	-9.73326
▁currently	-9.73344
▁doubt	-9.73382
▁pa	-9.7344
▁hilarious	-9.73528
▁shout	-9.73677
▁trailer	-9.73716
▁cheer	-9.73772
▁gig	-9.73806
▁pray	-9.7389
▁nobody	-9.74017
▁dancing	-9.74057
▁Right	-9.74067
ga	-9.74086
▁RE	-9.74189
▁Red	-9.74367
▁remind	-9.74502
▁failed	-9.74563
▁paid	-9.74576
▁takes	-9.7463
▁Show	-9.74719
▁NY	-9.74748
▁badly	-9.74763
▁search	-9.74791
▁Next	-9.74857
▁hangover	-9.74862
▁Al	-9.74929
▁cancelled	-9.74932
▁blood	-9.74985
▁suppose	-9.75003
▁code	-9.75082
ad	-9.75134
▁Tom	-9.75264
▁di	-9.75272
▁arm	-9.75315
▁milk	-9.75457
▁sky	-9.7551
LE	-9.75601
▁Bo	-9.75646
▁hmmm	-9.7567
▁burnt	-9.75674
▁th	-9.75697
ph	-9.75715
▁laundry	-9.75751
lin	-9.75807
▁Fun	-9.75848
▁board	-9.75893
▁World	-9.75902
▁calling	-9.75927
▁ng	-9.76021
▁planning	-9.76063
▁DAY	-9.76101
▁yup	-9.76245
▁copy	-9.76257
ite	-9.76297
▁flat	-9.76302
▁sale	-9.76346
▁nervous	-9.76352
▁although	-9.76429
▁gosh	-9.76452
▁blast	-9.76464
▁travel	-9.76472
▁bunch	-9.76487
▁choice	-9.76512
▁wasnt	-9.766
▁Fuck	-9.76662
▁spending	-9.76692
▁Google	-9.7673
ster	-9.76785
▁miles	-9.76796
rrr	-9.7683
▁ko	-9.76923
ner	-9.77035
▁Pro	-9.77167
▁favourite	-9.77186
▁match	-9.77191
ke	-9.77193
sss	-9.77215
▁afford	-9.77261
▁ca	-9.77344
AM	-9.77359
▁maths	-9.77433
ong	-9.77445
▁Yep	-9.77505
▁doctor	-9.77533
▁Would	-9.77607
▁dentist	-9.77644
red	-9.77746
▁honey	-9.77804
▁tha	-9.7786
▁asking	-9.7801
▁none	-9.78044
▁important	-9.78103
▁row	-9.78151
▁bath	-9.78343
▁buddy	-9.7837
▁wtf	-9.78421
▁Dr	-9.7843
▁NYC	-9.78459
▁Hmm	-9.78499
▁House	-9.78567
▁brothers	-9.78629
▁become	-9.78811
▁promise	-9.7884
▁ohh	-9.78966
▁2009	-9.78971
▁floor	-9.79108
▁HAVE	-9.7916
▁experience	-9.79198
▁dropped	-9.79264
▁vi	-9.7929
▁loads	-9.79306
▁count	-9.79379
▁non	-9.79477
▁men	-9.79814
▁ages	-9.79935
aaaa	-9.79977
▁depressed	-9.7998
▁tom	-9.79993
▁watchin	-9.80007
▁putting	-9.80208
▁afraid	-9.80273
RE	-9.80443
▁po	-9.8062
▁thoughts	-9.80693
ya	-9.8075
side	-9.80818
aa	-9.81098
▁lie	-9.81143
▁complete	-9.81161
▁shift	-9.81293
▁mothers	-9.81444
▁Does	-9.81455
▁bright	-9.81544
▁load	-9.81547
▁AT	-9.81593
▁happening	-9.81674
▁gotten	-9.81697
▁Our	-9.81814
▁ps	-9.81859
▁june	-9.81871
LY	-9.81882
▁cried	-9.81882
▁net	-9.81931
▁PLEASE	-9.81933
oooo	-9.82152
va	-9.82166
▁Jo	-9.8245
▁ND	-9.8262
▁cough	-9.82672
▁killed	-9.82735
▁kidding	-9.82759
▁sims	-9.82761
▁Super	-9.82763
▁Must	-9.82788
▁Apple	-9.82835
▁report	-9.82854
▁HATE	-9.82858
▁expensive	-9.82894
▁moved	-9.82963
▁ideas	-9.83008
▁major	-9.83049
▁relax	-9.83084
▁throw	-9.83238
▁yall	-9.83238
▁nights	-9.83358
▁OF	-9.83469
▁invite	-9.83564
▁helping	-9.83623
▁CD	-9.83701
▁local	-9.83705
▁four	-9.83985
▁chillin	-9.84341
▁hoo	-9.84364
time	-9.84369
▁mi	-9.84545
▁De	-9.84648
▁space	-9.84704
▁bug	-9.84756
▁dnt	-9.84766
▁anywhere	-9.84775
▁sex	-9.84783
▁ouch	-9.84791
▁falling	-9.84832
▁mobile	-9.84846
▁shouldn	-9.84864
▁neck	-9.84879
▁Air	-9.84956
▁telling	-9.84991
▁design	-9.85046
▁AWESOME	-9.85091
ap	-9.85094
▁present	-9.85182
▁workout	-9.85261
▁roll	-9.85355
▁feed	-9.8547
▁Jon	-9.85503
▁Stupid	-9.85586
▁allowed	-9.85619
▁dang	-9.85626
ue	-9.85668
▁everyday	-9.85695
▁view	-9.857
▁depressing	-9.85779
▁grow	-9.85789
▁San	-9.85808
▁joke	-9.85819
▁vid	-9.85899
▁peace	-9.85957
▁mini	-9.85957
▁grad	-9.8601
ub	-9.86024
▁state	-9.86109
▁stick	-9.86196
▁Miley	-9.8622
▁buying	-9.86358
▁arrived	-9.86502
▁Pre	-9.86506
▁Woke	-9.8654
▁area	-9.86724
▁bf	-9.86993
▁pe	-9.87002
▁losing	-9.87089
▁issues	-9.87209
ring	-9.87266
▁Dad	-9.87348
▁learning	-9.87505
ana	-9.87812
▁against	-9.87823
▁street	-9.87833
way	-9.87937
ny	-9.87963
▁WTF	-9.88016
vi	-9.88151
▁folks	-9.88161
▁yum	-9.88184
ning	-9.88215
▁gift	-9.88267
▁outta	-9.88273
▁xo	-9.88354
▁french	-9.88363
▁80	-9.88394
▁return	-9.88594
▁Eating	-9.88637
▁uni	-9.88728
▁thursday	-9.88785
▁release	-9.88844
▁WE	-9.88915
▁followed	-9.88991
▁checked	-9.89045
▁energy	-9.8912
he	-9.89145
bi	-9.89202
▁tuesday	-9.89297
▁000	-9.8953
▁system	-9.89549
▁calls	-9.89569
▁Q	-9.8957
▁delicious	-9.89638
▁showing	-9.89644
▁nah	-9.8966
▁prom	-9.89674
▁stress	-9.89674
▁midnight	-9.89725
ai	-9.89732
▁jonas	-9.89736
▁bb	-9.89789
▁Wednesday	-9.89808
▁keeping	-9.89812
▁John	-9.89882
▁Moon	-9.899
▁Jonas	-9.89908
▁wrote	-9.90067
rk	-9.90082
ating	-9.9013
▁boss	-9.90138
▁positive	-9.90154
▁machine	-9.90154
▁anyways	-9.90175
▁headed	-9.90178
▁updated	-9.90236
bu	-9.90283
ip	-9.90323
▁empty	-9.90327
▁brought	-9.90328
▁France	-9.90334
▁imagine	-9.90412
▁RIP	-9.90426
▁hav	-9.9044
▁crappy	-9.90443
▁PC	-9.90515
▁freakin	-9.90517
▁feelin	-9.90519
▁social	-9.9077
▁surprise	-9.9079
▁messages	-9.90806
▁step	-9.90824
▁200	-9.90828
▁tonite	-9.90942
▁couch	-9.90994
▁google	-9.9103
▁spot	-9.91146
ci	-9.91256
▁Watch	-9.91283
▁burn	-9.91287
▁note	-9.91373
7	-9.9144
kin	-9.91474
▁official	-9.91559
▁sometime	-9.91684
▁mmm	-9.91801
▁thunder	-9.91811
▁fave	-9.91813
▁style	-9.91816
ja	-9.91927
▁LMAO	-9.91996
uck	-9.91999
▁sweetie	-9.92027
▁li	-9.92032
▁finger	-9.92166
▁swear	-9.9217
▁cookies	-9.92211
▁review	-9.92243
▁AMAZING	-9.92518
▁Lost	-9.9252
▁boat	-9.92522
▁talked	-9.92624
▁22	-9.9263
▁dr	-9.92709
▁station	-9.92838
▁Bored	-9.92881
▁studio	-9.92905
▁Sims	-9.92933
▁WHAT	-9.9295
▁mama	-9.9303
▁Ra	-9.93103
▁sending	-9.93121
▁secret	-9.93153
▁awwww	-9.93217
▁checking	-9.93245
▁Con	-9.9348
▁ga	-9.93497
▁THIS	-9.93498
▁Head	-9.93521
▁Du	-9.93524
tin	-9.93731
▁Ro	-9.93738
▁Ya	-9.93817
▁twice	-9.93862
▁gunna	-9.93864
▁ooh	-9.9388
▁channel	-9.93951
▁JUST	-9.93956
▁strong	-9.94032
▁kitty	-9.94044
▁swim	-9.9413
▁fo	-9.94176
▁finding	-9.94213
▁Tonight	-9.94235
▁bc	-9.94253
▁session	-9.94283
▁Want	-9.94317
ks	-9.94394
▁entire	-9.9441
▁twilight	-9.94669
ber	-9.94781
▁ring	-9.94887
▁loud	-9.9492
ier	-9.94931
▁age	-9.94931
▁yours	-9.94952
▁Thats	-9.95003
▁follower	-9.95034
▁weight	-9.952
▁joy	-9.95225
pp	-9.9526
▁mix	-9.95305
▁size	-9.9538
▁GREAT	-9.95487
▁Tired	-9.9558
▁wall	-9.9582
▁five	-9.95843
▁adorable	-9.95852
ight	-9.95892
▁epic	-9.95904
▁Po	-9.95906
▁Ahh	-9.95999
▁sh	-9.96106
▁realize	-9.96189
▁noticed	-9.96248
▁People	-9.96311
▁nick	-9.96425
▁Sat	-9.96437
▁Look	-9.9646
▁Unfortunately	-9.96495
▁rid	-9.96533
▁added	-9.9656
▁smart	-9.96584
▁ladies	-9.96688
▁tough	-9.9704
▁law	-9.97176
▁stage	-9.97281
▁simple	-9.9733
▁laying	-9.9738
▁hat	-9.97408
▁glass	-9.97471
▁skin	-9.97485
▁dry	-9.97486
▁personal	-9.97567
▁battery	-9.97625
▁knee	-9.97677
EN	-9.97894
▁uh	-9.97999
▁Bar	-9.98041
▁Doing	-9.98047
▁twittering	-9.98108
▁Vegas	-9.98356
▁Twilight	-9.98358
▁clear	-9.98507
▁productive	-9.98548
cha	-9.986
▁swine	-9.98641
▁crack	-9.98661
▁library	-9.98733
morrow	-9.98811
▁deserve	-9.98812
▁AGAIN	-9.98827
▁act	-9.98936
gh	-9.99027
▁msn	-9.99316
▁apartment	-9.99316
▁hurting	-9.9935
▁loss	-9.9935
▁decide	-9.99353
▁ending	-9.99397
▁trust	-9.99418
▁piece	-9.99428
▁kept	-9.99498
hhhh	-9.99594
▁HAHA	-9.996
▁schedule	-9.99637
▁finale	-9.99713
▁block	-9.99795
▁gutted	-9.99873
▁blackberry	-9.99874
▁article	-10.0001
▁cooking	-10.0002
▁land	-10.0004
▁dumb	-10.0005
▁drama	-10.0006
▁Might	-10.001
▁stayed	-10.0012
▁fake	-10.0016
▁Kate	-10.0018
▁Wishing	-10.0025
▁connection	-10.0028
mb	-10.0034
▁price	-10.0034
▁butt	-10.0035
▁everywhere	-10.0036
▁lu	-10.0043
▁Woo	-10.0044
▁hahahaha	-10.0045
▁bless	-10.0048
di	-10.0055
▁alive	-10.0056
J	-10.0059
▁rocks	-10.0063
nna	-10.0072
▁Lakers	-10.0105
▁misses	-10.0107
▁DVD	-10.0108
▁public	-10.0112
▁vs	-10.0113
▁kiss	-10.0118
▁pants	-10.0124
▁nails	-10.0124
▁Almost	-10.0131
▁BTW	-10.0133
▁grandma	-10.0134
▁unless	-10.0135
rt	-10.0148
▁lake	-10.0149
▁Sleep	-10.0154
▁soup	-10.0158
▁easier	-10.016
bs	-10.0163
▁picked	-10.0163
▁million	-10.0165
▁Rain	-10.0167
▁color	-10.0168
▁HA	-10.0182
▁letting	-10.0187
bb	-10.0189
▁tweeps	-10.019
▁Live	-10.0195
▁fault	-10.0199
▁mon	-10.02
▁barely	-10.0201
▁09	-10.0202
▁txt	-10.0204
▁Adam	-10.0213
au	-10.0213
▁bottle	-10.0214
▁drinks	-10.0217
uff	-10.0218
▁desk	-10.0222
AR	-10.0231
▁kitchen	-10.0238
io	-10.0242
▁Girl	-10.0254
▁jk	-10.0266
▁City	-10.0266
▁wednesday	-10.0268
▁tears	-10.027
▁90	-10.0272
▁bummer	-10.0297
▁Le	-10.0298
uh	-10.0305
▁tweeted	-10.0311
LL	-10.0315
▁toast	-10.0321
tic	-10.0336
▁Saw	-10.034
▁lack	-10.035
▁diet	-10.0354
▁difficult	-10.0355
▁cats	-10.036
▁Park	-10.0366
▁fi	-10.0384
der	-10.0387
▁bbq	-10.0397
lu	-10.0415
▁Trek	-10.0417
▁BB	-10.0424
▁total	-10.0433
▁mar	-10.0434
▁	-10.044
▁laughing	-10.0443
▁access	-10.0466
▁bi	-10.0476
▁Ta	-10.0476
▁El	-10.0477
▁cheap	-10.0497
▁American	-10.0498
▁Chris	-10.0504
ping	-10.0507
▁tht	-10.0507
▁wanting	-10.0513
▁accident	-10.0517
▁bird	-10.0518
ud	-10.0529
▁FB	-10.0542
▁Photo	-10.0546
▁Lo	-10.0553
▁limit	-10.0557
▁Lots	-10.0559
▁spam	-10.0564
kk	-10.0565
▁lesson	-10.0569
▁Nick	-10.0579
ver	-10.0584
▁sharing	-10.0587
ville	-10.0594
▁direct	-10.0594
▁comments	-10.0603
▁sushi	-10.0607
▁glasses	-10.0612
▁Internet	-10.0617
▁credit	-10.0618
▁planned	-10.0618
▁ARE	-10.0621
▁CAN	-10.0628
▁Taking	-10.0629
▁fu	-10.0635
▁cost	-10.0636
▁tweeter	-10.0639
▁clock	-10.0639
▁essay	-10.064
▁child	-10.0647
▁teacher	-10.0648
▁OUT	-10.0649
▁wash	-10.0649
▁Pretty	-10.0658
▁father	-10.0661
▁Haven	-10.0663
▁explain	-10.0668
▁pls	-10.0669
▁Hell	-10.0677
▁WOW	-10.068
ble	-10.0685
▁nd	-10.0689
EE	-10.0696
Q	-10.0696
ik	-10.0697
▁shining	-10.0704
pa	-10.0709
▁Yea	-10.0711
▁Joe	-10.0716
▁click	-10.0718
▁table	-10.0727
▁WHY	-10.0728
▁ni	-10.0731
▁jo	-10.0746
▁Green	-10.0751
▁somebody	-10.0755
▁surgery	-10.076
▁married	-10.077
▁wind	-10.078
▁Nope	-10.078
AL	-10.0787
▁Australia	-10.0801
ball	-10.0801
▁craving	-10.0802
night	-10.0803
▁Bye	-10.0807
▁iTunes	-10.0812
▁attempt	-10.0822
▁strange	-10.0828
▁ordered	-10.083
▁prefer	-10.083
▁CA	-10.0847
▁mark	-10.0851
▁goodness	-10.0851
▁celebrate	-10.0855
ence	-10.0855
▁French	-10.0864
▁results	-10.0865
cing	-10.0881
▁messed	-10.0888
▁issue	-10.0892
▁mid	-10.0893
▁fabulous	-10.0905
▁WANT	-10.0919
our	-10.092
▁holidays	-10.0922
▁fa	-10.0932
▁sp	-10.0938
▁FML	-10.0938
▁DC	-10.0939
▁Un	-10.0946
▁rough	-10.0949
▁pm	-10.0958
▁jump	-10.0959
▁figured	-10.096
▁flying	-10.0961
hi	-10.0977
ft	-10.098
▁control	-10.099
▁women	-10.099
▁se	-10.0995
▁science	-10.1011
▁Leaving	-10.1011
▁across	-10.1024
▁addicted	-10.1026
▁annoyed	-10.1028
▁bread	-10.1035
con	-10.104
den	-10.1042
▁cha	-10.105
▁pleasure	-10.1053
▁ugly	-10.1053
tion	-10.106
▁Seriously	-10.1064
▁degrees	-10.1072
▁Free	-10.1075
▁given	-10.1076
▁worries	-10.1085
▁shes	-10.1085
▁darn	-10.1086
▁south	-10.1086
lly	-10.1092
▁marathon	-10.1095
▁Ne	-10.1095
▁Mine	-10.1097
ES	-10.11
00	-10.1107
▁um	-10.1115
ass	-10.1121
▁london	-10.1127
▁Beautiful	-10.1138
▁apart	-10.1147
▁juice	-10.115
▁tear	-10.1167
ical	-10.1168
▁Na	-10.117
▁awhile	-10.117
▁hehehe	-10.1172
▁interested	-10.118
▁Chicago	-10.1181
▁babies	-10.1181
zz	-10.1213
▁catching	-10.1216
▁Sp	-10.1217
▁Pa	-10.1218
▁ima	-10.1228
▁painful	-10.1244
▁memories	-10.1246
▁ten	-10.1246
▁handle	-10.1254
▁Sam	-10.1261
▁Thinking	-10.1266
▁JB	-10.127
▁waste	-10.127
▁ruined	-10.1271
▁pull	-10.1282
▁offer	-10.1287
▁ro	-10.1287
light	-10.1294
led	-10.1297
▁expect	-10.13
▁advice	-10.13
▁WAS	-10.1303
▁knock	-10.1315
▁button	-10.1316
▁wee	-10.1317
▁Actually	-10.1322
▁notice	-10.1324
▁Two	-10.1324
▁tattoo	-10.1324
▁human	-10.1328
▁Made	-10.1329
▁UGH	-10.1331
▁weren	-10.1336
▁crash	-10.1344
▁places	-10.1348
▁ta	-10.1348
▁Rob	-10.1349
▁NEED	-10.1355
▁alarm	-10.1366
▁girlfriend	-10.1367
▁mtv	-10.1368
▁OS	-10.1373
▁hills	-10.1377
▁magic	-10.1378
▁Dont	-10.1382
▁dat	-10.1385
▁windows	-10.1385
ack	-10.1387
▁football	-10.1388
IT	-10.1389
▁ja	-10.1395
ge	-10.1403
▁signed	-10.1411
▁EVER	-10.1419
▁posting	-10.1421
▁blame	-10.1426
▁NEW	-10.1436
rn	-10.1441
▁onto	-10.1445
▁ain	-10.1447
▁sir	-10.1448
5	-10.1451
▁gas	-10.1453
▁sea	-10.1459
▁soccer	-10.1464
▁deep	-10.1474
▁angry	-10.1476
▁attack	-10.1479
▁lived	-10.148
ler	-10.1482
ens	-10.1486
▁blocked	-10.1498
▁quit	-10.1499
▁Hot	-10.1501
▁Ahhh	-10.1506
▁er	-10.1507
▁abt	-10.1516
▁winter	-10.1521
▁upgrade	-10.1528
▁Found	-10.1533
▁33	-10.1537
▁Playing	-10.1542
▁sugar	-10.1542
lan	-10.1546
▁children	-10.1554
ney	-10.1558
▁MA	-10.156
▁reality	-10.1561
▁brand	-10.1567
▁Jay	-10.1568
▁Baby	-10.1576
▁Black	-10.1576
▁questions	-10.158
▁ke	-10.1586
ex	-10.1591
▁war	-10.1608
▁TOO	-10.1612
ita	-10.1615
▁golf	-10.1623
ky	-10.163
▁shitty	-10.1631
▁Taylor	-10.1632
▁FF	-10.1633
▁crossed	-10.1637
op	-10.1642
▁Say	-10.1659
iii	-10.1663
ther	-10.1687
▁Making	-10.169
▁poo	-10.1691
▁evil	-10.1694
▁smoke	-10.1697
eeeee	-10.1698
▁log	-10.1708
▁Hehe	-10.172
▁turns	-10.172
men	-10.1722
wa	-10.1722
▁truck	-10.1724
▁theres	-10.1727
▁Hate	-10.1729
▁six	-10.1732
▁status	-10.1734
▁aunt	-10.1742
▁Mar	-10.1745
▁Always	-10.1756
▁main	-10.1758
▁spring	-10.1768
▁key	-10.1772
▁yard	-10.1778
▁shots	-10.179
▁market	-10.1792
▁HE	-10.1798
▁Li	-10.1801
▁sunburn	-10.1805
▁gi	-10.1811
▁Being	-10.1811
▁Such	-10.1811
▁managed	-10.1812
▁Missed	-10.1814
▁truly	-10.1815
▁snow	-10.1822
que	-10.1823
▁brilliant	-10.1825
▁Hmmm	-10.1827
ww	-10.1828
▁turning	-10.1837
▁contest	-10.1848
my	-10.1856
▁attend	-10.1859
▁Awards	-10.1862
▁chi	-10.1866
▁latest	-10.1877
▁Finished	-10.1878
ise	-10.1887
▁pair	-10.1893
▁By	-10.1897
▁pet	-10.1899
▁demi	-10.1909
▁bo	-10.191
▁salad	-10.1917
▁atm	-10.1917
▁however	-10.1918
jo	-10.1924
▁hearing	-10.1924
▁mr	-10.1927
ach	-10.1929
▁que	-10.1931
▁learned	-10.1936
▁possibly	-10.194
▁episodes	-10.196
▁jam	-10.1961
▁fab	-10.1968
▁ju	-10.197
▁contact	-10.1973
▁media	-10.1983
▁wa	-10.1985
work	-10.1997
▁beginning	-10.1999
▁fucked	-10.2028
▁Ho	-10.203
ug	-10.2033
hu	-10.2037
▁thanx	-10.2038
and	-10.2049
▁imma	-10.2055
▁extremely	-10.2059
▁grand	-10.2062
▁ra	-10.2064
▁KNOW	-10.2064
▁somehow	-10.2068
▁Party	-10.2077
▁Apparently	-10.208
ns	-10.2084
mon	-10.2087
▁cable	-10.2087
▁heavy	-10.2092
▁ankle	-10.2095
▁performance	-10.2104
ms	-10.2107
ten	-10.2109
▁sisters	-10.2119
▁MISS	-10.212
aw	-10.2127
▁bff	-10.2127
▁HAPPY	-10.2132
▁server	-10.2132
▁healthy	-10.2134
▁ONE	-10.2134
▁voted	-10.2142
▁Thx	-10.2147
ons	-10.2156
ze	-10.2162
▁Congratulations	-10.2163
▁paint	-10.2171
▁cash	-10.2173
▁hes	-10.2181
▁helps	-10.2182
▁nasty	-10.2187
yyyy	-10.2187
▁mornin	-10.2188
end	-10.2189
▁cousins	-10.2194
▁twitpic	-10.2199
▁Ouch	-10.2214
▁presentation	-10.2215
▁recommend	-10.2226
▁lookin	-10.2228
▁joined	-10.2228
▁pulled	-10.2231
ure	-10.2232
▁excuse	-10.2234
▁client	-10.2236
▁Which	-10.2246
▁tight	-10.2248
▁spell	-10.2248
▁sha	-10.2253
▁painting	-10.2254
▁gross	-10.2256
▁breaking	-10.2257
ooooo	-10.2261
uuu	-10.2262
▁hu	-10.2272
▁player	-10.228
▁soul	-10.2288
▁tech	-10.2305
▁level	-10.2307
▁Wait	-10.2309
▁building	-10.2316
▁tweeteradder	-10.2318
▁process	-10.2318
▁bill	-10.2325
hr	-10.2326
▁va	-10.2331
▁Totally	-10.2331
▁Could	-10.2332
▁q	-10.2342
▁starbucks	-10.2342
▁closer	-10.2343
▁140	-10.2346
▁Paris	-10.2349
▁excellent	-10.2354
MA	-10.2369
▁ed	-10.2371
▁Her	-10.2374
▁True	-10.2378
▁APS	-10.2388
▁orange	-10.2391
of	-10.2397
rry	-10.2405
▁Vi	-10.2407
▁jack	-10.2413
qui	-10.2414
▁VERY	-10.2415
▁install	-10.2417
▁HOT	-10.2423
▁attention	-10.2427
▁Help	-10.2427
▁gives	-10.2429
▁mostly	-10.2433
▁Again	-10.2439
▁fear	-10.2443
▁lives	-10.2448
▁daily	-10.2464
▁moms	-10.2465
▁quickly	-10.2467
the	-10.248
ped	-10.2482
▁STILL	-10.2488
▁begin	-10.249
tra	-10.2495
ger	-10.2497
▁ridiculous	-10.25
ab	-10.2505
▁60	-10.2509
▁500	-10.251
▁fellow	-10.2515
town	-10.2522
▁revising	-10.2525
▁Yup	-10.2529
IC	-10.2539
▁Ga	-10.254
AN	-10.2545
▁older	-10.2548
follow	-10.2548
▁GET	-10.2553
ham	-10.2562
▁AC	-10.2564
▁sub	-10.2576
ade	-10.2578
▁weekends	-10.2579
▁trending	-10.2599
▁Game	-10.2599
▁Ready	-10.26
▁Danny	-10.2601
▁emails	-10.2604
▁july	-10.2607
ron	-10.2611
▁Beach	-10.2613
▁deleted	-10.2623
▁Sometimes	-10.2624
▁meal	-10.2627
▁Sadly	-10.2636
▁Much	-10.2637
▁chick	-10.2639
▁walked	-10.264
▁press	-10.2643
▁South	-10.2661
▁ears	-10.2662
▁seat	-10.2666
▁wide	-10.2668
▁eaten	-10.2668
▁acting	-10.267
▁High	-10.267
▁Sigh	-10.267
▁leaves	-10.2675
▁kicked	-10.2697
gi	-10.2697
▁vegas	-10.2699
▁Play	-10.2702
ecause	-10.2708
▁heck	-10.2709
▁YOUR	-10.271
▁Plus	-10.2725
ran	-10.2726
tch	-10.2734
▁biggest	-10.2736
▁Canada	-10.2739
▁pc	-10.2746
▁blessed	-10.2749
▁score	-10.2755
▁anytime	-10.2758
▁fuckin	-10.2759
▁mag	-10.2761
▁Matt	-10.2762
▁speed	-10.2762
▁links	-10.277
gan	-10.2773
▁August	-10.2786
▁form	-10.2787
▁baseball	-10.2799
▁23	-10.2809
▁bear	-10.281
▁slightly	-10.2814
▁grade	-10.2816
ward	-10.2825
▁butter	-10.2826
▁action	-10.2827
tu	-10.2834
RA	-10.2836
house	-10.2837
ction	-10.2858
▁tree	-10.2861
▁Ar	-10.2874
▁Try	-10.2879
SS	-10.2887
▁tiny	-10.2894
AT	-10.2899
▁FUCK	-10.29
lar	-10.2901
vo	-10.2902
▁GOD	-10.2907
▁conference	-10.2913
▁odd	-10.2915
▁recently	-10.2917
▁revise	-10.2918
▁dirty	-10.2923
ren	-10.2924
▁mode	-10.2925
▁bu	-10.2926
▁dvd	-10.2932
▁Enjoying	-10.2944
RI	-10.2947
▁literally	-10.2965
▁workin	-10.2966
▁wh	-10.2968
▁Way	-10.2969
▁tix	-10.2977
▁research	-10.2977
▁cross	-10.298
ette	-10.2986
▁MUCH	-10.299
▁choose	-10.299
gu	-10.3006
▁vet	-10.3008
▁properly	-10.301
▁Probably	-10.3016
▁Better	-10.3018
▁woot	-10.3018
ions	-10.3018
▁pages	-10.3026
res	-10.3026
▁Cha	-10.3026
ttt	-10.3027
▁Gu	-10.3041
▁taylor	-10.3042
▁Ca	-10.3044
ding	-10.3046
ki	-10.3048
vin	-10.3049
bar	-10.3051
che	-10.3052
▁England	-10.3055
▁York	-10.3055
▁surprised	-10.3063
▁brown	-10.3064
▁crashed	-10.3065
old	-10.3065
▁updating	-10.3068
▁continue	-10.3069
▁Ad	-10.307
ara	-10.3073
▁topic	-10.3082
▁From	-10.3082
▁fruit	-10.3091
▁decent	-10.3099
▁exist	-10.3099
▁Dude	-10.3103
ches	-10.3111
▁liking	-10.3115
▁gu	-10.3115
▁apps	-10.312
hrs	-10.3124
sa	-10.3127
▁oops	-10.3134
▁teach	-10.3138
▁opening	-10.3148
▁mu	-10.3149
▁original	-10.3165
▁awe	-10.3167
▁freak	-10.317
▁argh	-10.3172
▁software	-10.3172
▁Sure	-10.3175
▁sux	-10.3178
▁festival	-10.3185
▁70	-10.3198
board	-10.3199
▁Ben	-10.3202
AH	-10.3219
▁Thought	-10.3224
▁packed	-10.3224
▁bomb	-10.3236
oooooo	-10.3238
▁program	-10.3243
yo	-10.3244
▁Jack	-10.3252
▁realised	-10.3261
▁finishing	-10.3265
▁Loving	-10.3267
▁assignment	-10.3272
ell	-10.3277
ism	-10.3278
▁stock	-10.3278
▁freezing	-10.3281
▁pan	-10.3286
▁Doesn	-10.329
▁massive	-10.3292
▁26	-10.3297
▁Amazing	-10.3305
han	-10.3306
▁Done	-10.3319
ever	-10.3323
▁tooth	-10.3329
▁ow	-10.3336
▁arms	-10.3348
▁famous	-10.3349
use	-10.3351
ves	-10.3362
OW	-10.3363
od	-10.3364
gs	-10.3367
▁network	-10.3374
▁charge	-10.3374
▁hella	-10.338
▁situation	-10.3384
ick	-10.3394
▁hah	-10.3395
▁mcfly	-10.3398
▁Dang	-10.3398
▁haircut	-10.34
▁oooh	-10.3401
▁YouTube	-10.3411
▁known	-10.3413
▁Mon	-10.3416
ggg	-10.3422
▁remembered	-10.3423
▁talent	-10.3433
▁quality	-10.3438
▁Shame	-10.344
▁certain	-10.3444
▁fri	-10.3448
▁joe	-10.3452
▁host	-10.3454
▁proper	-10.3461
▁cards	-10.3465
▁posts	-10.3465
▁build	-10.3467
▁Brothers	-10.3467
▁Hoping	-10.347
▁Pe	-10.3471
▁grey	-10.3475
▁Same	-10.3478
▁Mi	-10.3479
▁david	-10.3479
▁pub	-10.348
port	-10.3481
ore	-10.3486
ec	-10.349
▁memory	-10.3492
ator	-10.3501
▁Little	-10.3506
we	-10.3514
▁Send	-10.3518
▁Demi	-10.352
▁sucked	-10.3521
▁ohhh	-10.3531
▁third	-10.3534
▁Germany	-10.3535
▁prayers	-10.3544
▁Reading	-10.3548
iff	-10.3548
▁stressed	-10.3549
▁America	-10.3557
▁perhaps	-10.356
▁obviously	-10.3562
▁ad	-10.3566
▁Argh	-10.357
▁expected	-10.357
▁tennis	-10.3587
her	-10.3591
si	-10.3592
▁chair	-10.3596
pi	-10.361
▁filled	-10.3618
▁earth	-10.3618
▁invited	-10.3624
▁west	-10.3628
ct	-10.3632
▁reach	-10.3637
nny	-10.3638
▁Disney	-10.3642
▁option	-10.3647
▁youre	-10.3651
▁scene	-10.3656
▁fed	-10.3658
▁winning	-10.366
let	-10.367
▁Ur	-10.3671
▁BEST	-10.3675
▁id	-10.3681
▁bathroom	-10.3684
▁je	-10.3693
▁otherwise	-10.3698
▁mis	-10.3699
▁Lucky	-10.3699
▁aha	-10.3701
▁migraine	-10.3711
▁Magic	-10.3713
ign	-10.3723
▁response	-10.3725
▁coast	-10.3733
▁du	-10.3734
▁rush	-10.3735
▁model	-10.374
tor	-10.3751
▁allow	-10.3762
po	-10.3764
▁hardly	-10.377
ide	-10.377
▁Stay	-10.3772
ep	-10.3782
▁twitt	-10.3784
ize	-10.3787
▁dressed	-10.3788
▁Cat	-10.3792
▁impressed	-10.3794
▁Ru	-10.3796
▁chips	-10.3796
▁Sa	-10.3797
▁Pi	-10.3802
▁sandwich	-10.3804
▁Ba	-10.3804
▁Brazil	-10.3806
▁Music	-10.3813
▁tons	-10.3823
nes	-10.3831
ru	-10.3833
nnn	-10.3835
▁appointment	-10.3836
ala	-10.3841
▁corner	-10.3844
yn	-10.385
▁uncle	-10.3853
▁Hard	-10.3854
so	-10.3859
▁health	-10.386
▁restaurant	-10.3864
▁screwed	-10.3867
▁James	-10.3867
▁Give	-10.3871
▁fml	-10.3874
▁yrs	-10.3874
▁Da	-10.3876
▁term	-10.3887
▁geek	-10.3888
gen	-10.3891
▁ol	-10.3895
▁PA	-10.3898
▁cloudy	-10.3903
▁Ka	-10.3927
▁Alex	-10.3933
▁difference	-10.3935
▁WA	-10.3944
▁uk	-10.3947
▁repeat	-10.3949
uch	-10.3974
die	-10.3979
▁paying	-10.398
▁complain	-10.3982
▁dig	-10.3988
6	-10.3995
ming	-10.3996
▁bum	-10.4
▁rice	-10.4005
ea	-10.401
▁bio	-10.4014
TH	-10.4015
▁scratch	-10.4015
▁tip	-10.4017
▁eggs	-10.4023
▁slowly	-10.4023
▁bigger	-10.4026
▁address	-10.4035
▁yu	-10.4036
▁fe	-10.4043
▁admit	-10.4063
▁flash	-10.4066
▁Dear	-10.4072
▁Blue	-10.4075
▁FINALLY	-10.4078
▁keyboard	-10.4078
▁chilling	-10.4086
▁rite	-10.4089
▁nephew	-10.4092
▁fighting	-10.4093
▁tweetdeck	-10.4106
▁stories	-10.4107
▁Boston	-10.4107
▁flowers	-10.4107
lic	-10.4109
▁tmrw	-10.411
▁born	-10.4112
are	-10.4118
IL	-10.412
▁replies	-10.4121
rrrr	-10.4127
▁cuddle	-10.4131
▁West	-10.4134
▁WITH	-10.4135
▁helped	-10.4136
tr	-10.4142
▁es	-10.4144
▁riding	-10.4145
▁visiting	-10.4145
▁xxxx	-10.4146
▁COME	-10.4148
▁Coffee	-10.415
▁si	-10.4152
sp	-10.4159
ile	-10.4164
▁ahaha	-10.4176
▁massage	-10.4179
cu	-10.4181
▁Su	-10.4185
▁Although	-10.4193
▁hip	-10.4195
▁faster	-10.4195
▁certainly	-10.4201
ok	-10.4206
▁pot	-10.4207
back	-10.4208
▁bottom	-10.4208
▁1000	-10.4208
▁WILL	-10.4208
▁points	-10.4212
▁Open	-10.4213
▁recording	-10.4217
▁Ive	-10.4218
TA	-10.4235
▁washing	-10.4244
▁Win	-10.4251
▁Fi	-10.4252
▁bla	-10.4255
▁launch	-10.4262
▁growing	-10.4266
▁niece	-10.4266
▁heh	-10.4266
▁pen	-10.427
▁cam	-10.4275
▁loser	-10.4276
▁Everything	-10.4281
ssss	-10.4282
▁truth	-10.4283
▁quote	-10.4284
▁everytime	-10.4286
off	-10.4287
▁ruin	-10.4289
▁hung	-10.4289
▁Dan	-10.4291
▁shake	-10.4299
head	-10.4301
▁blow	-10.4303
ins	-10.4304
▁treat	-10.4307
▁switch	-10.431
▁Seem	-10.4312
▁FUN	-10.4318
▁woohoo	-10.4326
▁texting	-10.4332
▁Sick	-10.4334
ds	-10.4334
▁counting	-10.4342
▁soooooo	-10.4355
▁island	-10.4359
IE	-10.4359
▁Chi	-10.4365
▁ki	-10.4365
▁Texas	-10.4369
▁avatar	-10.4369
▁BACK	-10.4371
▁Boy	-10.4372
▁lab	-10.4382
▁allergies	-10.4384
▁jeans	-10.4386
ious	-10.439
▁hr	-10.439
▁hero	-10.4392
▁rubbish	-10.4399
▁infection	-10.4399
▁GOT	-10.4401
▁hurry	-10.4409
▁success	-10.4411
▁Michael	-10.4413
▁Family	-10.4413
▁bowl	-10.4415
ddd	-10.4419
▁Ju	-10.4421
▁fashion	-10.4428
▁FAIL	-10.4428
▁BO	-10.4429
▁SP	-10.443
▁anybody	-10.443
▁miserable	-10.4443
ena	-10.4447
▁details	-10.4448
ix	-10.446
ag	-10.4466
▁period	-10.4473
chi	-10.4473
ET	-10.448
▁downtown	-10.4483
▁Talk	-10.4494
▁Excited	-10.4503
▁NEVER	-10.4504
▁correct	-10.4505
▁wild	-10.4505
▁Ill	-10.4506
▁yeh	-10.451
▁smiling	-10.4518
▁van	-10.4519
▁smells	-10.4519
▁havin	-10.4519
▁27	-10.4523
ized	-10.4526
fi	-10.4531
▁field	-10.4533
▁cancer	-10.4533
▁ph	-10.4535
▁pie	-10.4541
▁focus	-10.4544
▁hole	-10.4545
▁TWITTER	-10.4548
▁Break	-10.4553
▁Won	-10.4553
▁stream	-10.4554
ash	-10.4554
py	-10.4556
▁sniff	-10.4559
CE	-10.456
▁hannah	-10.4563
▁Those	-10.4563
▁neither	-10.4564
▁push	-10.4568
▁crush	-10.4576
▁title	-10.458
▁bacon	-10.458
all	-10.4584
▁rob	-10.4592
▁heaven	-10.4593
▁bra	-10.4595
ev	-10.4599
▁north	-10.4601
ou	-10.4608
▁smh	-10.461
▁Holy	-10.461
▁released	-10.4622
▁sam	-10.463
▁Mu	-10.4636
▁Conan	-10.4642
www	-10.4643
ew	-10.4658
▁suggestions	-10.4659
▁honest	-10.4663
▁retweet	-10.4664
NT	-10.4664
▁drag	-10.4666
zing	-10.4667
ane	-10.467
ls	-10.4672
▁ends	-10.4679
▁HI	-10.4681
▁bite	-10.4682
▁language	-10.4684
▁wisdom	-10.4684
▁received	-10.4693
▁Dave	-10.4694
▁Tri	-10.4695
ged	-10.4697
ST	-10.4701
▁regular	-10.4707
▁ughh	-10.4709
▁Sh	-10.471
▁Top	-10.4712
▁clue	-10.4714
▁BIG	-10.4715
book	-10.4715
▁hook	-10.472
▁Yo	-10.4721
▁wouldnt	-10.4722
▁request	-10.4729
tro	-10.4732
fa	-10.4734
▁saved	-10.4739
▁lmfao	-10.4745
▁knowing	-10.4748
art	-10.4756
ery	-10.4757
▁delete	-10.4762
▁angel	-10.4769
▁bl	-10.4771
▁belly	-10.4773
▁sports	-10.479
▁twitters	-10.4805
▁Windows	-10.4807
▁TODAY	-10.4808
▁actual	-10.4815
▁Wii	-10.4817
20	-10.482
▁Something	-10.4823
▁Shit	-10.4827
▁error	-10.4827
▁wooo	-10.4828
▁birds	-10.4831
ND	-10.4832
▁Ja	-10.4835
▁nooo	-10.4842
▁student	-10.4843
▁draw	-10.4844
▁cheers	-10.4845
▁data	-10.4851
10	-10.4853
▁Lunch	-10.4871
▁praying	-10.4874
▁candy	-10.4879
oon	-10.488
▁result	-10.4882
▁letter	-10.4882
gie	-10.4884
▁graduate	-10.4885
▁hw	-10.4886
▁demo	-10.4886
▁current	-10.4893
moro	-10.4896
▁connect	-10.4899
▁Call	-10.4903
▁pin	-10.4908
▁uploading	-10.4909
▁purple	-10.4916
ial	-10.4916
cc	-10.4918
▁Em	-10.4923
▁horse	-10.4924
▁egg	-10.4924
▁Most	-10.4937
▁su	-10.4937
boy	-10.4939
▁fill	-10.4944
▁bother	-10.4957
▁Bed	-10.4959
▁Especially	-10.4963
▁harder	-10.4964
▁hill	-10.4965
▁chris	-10.4975
▁parties	-10.4975
▁grrr	-10.4975
▁lines	-10.4977
▁dec	-10.4981
▁stole	-10.4986
GS	-10.4989
▁picking	-10.4998
▁loose	-10.5003
▁alcohol	-10.5007
▁Ke	-10.5014
▁crew	-10.5016
▁WAY	-10.5017
▁Gra	-10.5018
▁chest	-10.5022
▁seconds	-10.5025
▁dammit	-10.5026
▁wi	-10.5028
▁pancakes	-10.5034
OL	-10.5035
▁Over	-10.5043
▁stars	-10.5044
mer	-10.5045
▁guilty	-10.5046
▁xbox	-10.5047
▁nail	-10.5055
▁stoked	-10.5057
▁Sha	-10.5063
▁dan	-10.5063
▁hitting	-10.5071
▁whenever	-10.5076
▁Kinda	-10.5079
▁Se	-10.5086
tle	-10.5087
▁tryin	-10.5089
▁conversation	-10.5096
lie	-10.5098
pt	-10.5111
▁msg	-10.5112
▁respond	-10.5113
▁manage	-10.5114
▁Mike	-10.5115
▁booo	-10.5131
▁Susan	-10.5137
▁shirts	-10.5142
▁signing	-10.5142
▁jon	-10.5144
▁regret	-10.5151
ship	-10.5152
▁breath	-10.5155
▁burned	-10.5156
RO	-10.5159
▁tests	-10.5165
▁anniversary	-10.5169
▁Busy	-10.5171
▁ish	-10.5175
▁grab	-10.518
▁yah	-10.5182
▁alex	-10.5183
▁mistake	-10.5185
▁cinema	-10.5185
▁itunes	-10.5186
▁99	-10.5189
ama	-10.5191
wood	-10.5192
▁likely	-10.5197
▁several	-10.5201
▁doctors	-10.5203
▁Harry	-10.5204
▁camping	-10.5204
▁names	-10.5205
rm	-10.5206
ino	-10.521
▁large	-10.5212
▁Mothers	-10.5214
▁USA	-10.5215
dle	-10.5215
▁temp	-10.5216
▁Video	-10.5217
▁threw	-10.5217
▁voting	-10.5218
▁hee	-10.5221
▁based	-10.5225
▁ST	-10.523
▁Hannah	-10.5233
▁challenge	-10.5233
▁rude	-10.5238
▁Every	-10.5245
▁exercise	-10.5249
▁Mark	-10.5251
▁arent	-10.5257
▁honestly	-10.5257
▁content	-10.5266
▁image	-10.5272
▁Bring	-10.5275
ung	-10.5277
▁tag	-10.5283
▁Tony	-10.5286
▁aim	-10.5297
▁creative	-10.5298
▁editing	-10.5302
▁lying	-10.5302
▁mile	-10.5312
▁Starbucks	-10.5314
▁DAMN	-10.5314
▁Lord	-10.5316
▁TIME	-10.5317
▁changing	-10.5318
▁print	-10.5319
▁theme	-10.5322
▁character	-10.5324
▁jobs	-10.5328
ris	-10.5331
▁Start	-10.5334
▁shine	-10.5335
love	-10.5339
cho	-10.5341
ooooooo	-10.5348
ute	-10.5356
▁bak	-10.5357
▁colour	-10.5357
more	-10.5361
▁hay	-10.5366
▁whether	-10.5379
▁classic	-10.5382
hy	-10.5383
▁clouds	-10.5385
ple	-10.5388
▁SF	-10.5393
▁section	-10.5396
▁Wanna	-10.5398
▁Ed	-10.5405
▁lovin	-10.541
▁esp	-10.5412
▁inter	-10.5426
▁suit	-10.5428
▁replied	-10.5428
▁spanish	-10.5429
▁Took	-10.543
▁tips	-10.5431
▁HD	-10.5438
▁screw	-10.5443
▁Lady	-10.5447
▁Hills	-10.5447
ible	-10.5453
▁itself	-10.5456
sion	-10.5458
▁delayed	-10.546
▁Florida	-10.5461
▁Know	-10.5462
tter	-10.5464
▁chatting	-10.5468
▁SA	-10.5479
▁ahhhh	-10.5483
▁outfit	-10.5487
▁Sc	-10.5488
▁downloading	-10.5491
field	-10.5494
▁john	-10.5494
▁swollen	-10.5494
▁tommorow	-10.5494
▁auto	-10.5501
▁JONAS	-10.5511
▁written	-10.5511
ko	-10.5511
av	-10.5515
▁300	-10.5523
TS	-10.5524
▁sites	-10.5527
▁MORE	-10.5528
▁PM	-10.5531
▁drawing	-10.5537
▁din	-10.554
▁cap	-10.554
▁Couldn	-10.5542
▁Remember	-10.5544
▁Cali	-10.5547
za	-10.5558
▁Sooo	-10.5562
▁nowhere	-10.5563
OO	-10.5568
ford	-10.5569
▁Girls	-10.557
▁Jesus	-10.5577
▁nightmare	-10.5585
ek	-10.5585
▁tune	-10.5586
▁War	-10.5593
▁ily	-10.5596
▁kate	-10.56
▁rich	-10.5606
▁fool	-10.5621
aaaaa	-10.5628
▁fancy	-10.563
▁35	-10.5633
if	-10.5635
▁Real	-10.5641
▁Father	-10.5642
▁Hanging	-10.5643
▁related	-10.5649
▁saving	-10.5655
▁flip	-10.5657
▁Cheers	-10.5658
▁curious	-10.5661
▁BA	-10.5664
ray	-10.5672
▁hon	-10.5686
▁charger	-10.5693
▁cancel	-10.5693
▁Hangover	-10.5695
▁meds	-10.5707
▁FREE	-10.5714
don	-10.5719
▁DA	-10.5721
ua	-10.5728
▁Th	-10.5728
▁Loved	-10.5731
ock	-10.5736
▁wen	-10.5745
▁California	-10.5745
▁Stop	-10.5752
▁nu	-10.5754
▁lead	-10.5754
▁cla	-10.5755
ving	-10.5759
▁poop	-10.5761
▁grocery	-10.5762
▁morn	-10.5766
▁goal	-10.5768
▁cast	-10.5771
iiii	-10.5774
nk	-10.5776
▁AS	-10.5778
▁private	-10.578
▁CO	-10.5784
▁Wa	-10.5785
lies	-10.5788
▁28	-10.5791
lt	-10.5794
▁named	-10.5795
▁rained	-10.5796
▁BGT	-10.5797
▁pee	-10.5798
▁Sarah	-10.58
▁san	-10.5803
uuuu	-10.5808
▁Paul	-10.5809
room	-10.581
▁ground	-10.5813
▁himself	-10.5818
▁oo	-10.5826
▁North	-10.5831
▁starving	-10.5832
▁Ryan	-10.5832
▁DON	-10.5838
▁covered	-10.5845
▁booked	-10.5847
box	-10.5852
▁Wants	-10.5853
eo	-10.5858
▁speaking	-10.586
▁shoulder	-10.5863
▁nuts	-10.5863
▁max	-10.5864
▁makeup	-10.5866
▁Stuck	-10.5867
▁woop	-10.5869
▁appreciated	-10.5871
▁Lovely	-10.5871
▁showed	-10.5877
ust	-10.5884
▁gear	-10.5886
▁holding	-10.5889
▁Cor	-10.5891
▁Ooh	-10.5894
▁fathers	-10.5895
ugh	-10.5899
▁calm	-10.5901
▁testing	-10.5904
▁grass	-10.5906
▁notes	-10.5906
▁piss	-10.5914
▁probs	-10.5914
▁har	-10.5916
▁Btw	-10.5917
▁par	-10.5921
▁spread	-10.5927
▁lip	-10.5929
▁BAD	-10.5933
▁Yesterday	-10.5934
▁insane	-10.5945
▁corn	-10.5951
▁bestie	-10.5954
▁Late	-10.5959
▁magazine	-10.5968
▁Weather	-10.5968
▁TH	-10.5973
▁inspiration	-10.5974
▁White	-10.5974
▁breathe	-10.5975
ica	-10.5975
▁Weekend	-10.5986
▁Friends	-10.5988
tan	-10.6
ked	-10.6001
▁rehearsal	-10.6003
▁basically	-10.6004
▁arrive	-10.6005
▁coke	-10.6013
▁avoid	-10.6013
▁dun	-10.6015
▁umm	-10.6016
▁atleast	-10.6021
ache	-10.6026
▁banana	-10.6031
▁opinion	-10.6038
▁appear	-10.6042
▁snap	-10.6045
▁Starting	-10.6052
▁congratulations	-10.6056
▁Hu	-10.6056
▁ooo	-10.6056
over	-10.6056
▁Old	-10.606
▁wasted	-10.606
▁Uh	-10.608
30	-10.608
▁bugs	-10.6083
ets	-10.6083
▁ang	-10.6088
▁wii	-10.609
oh	-10.609
▁hayfever	-10.6091
▁virus	-10.6091
▁river	-10.6092
▁standing	-10.6092
▁doc	-10.6098
▁darling	-10.6099
▁Di	-10.6106
▁strawberry	-10.6108
▁bubble	-10.6108
▁Peace	-10.6108
▁ar	-10.6112
▁lights	-10.6117
▁greatest	-10.6118
▁frm	-10.6119
▁Fri	-10.6125
▁ship	-10.6126
▁nerd	-10.613
▁characters	-10.6132
ned	-10.6132
▁FL	-10.6134
▁fr	-10.6135
▁Things	-10.6139
rg	-10.6146
▁chip	-10.6148
▁Down	-10.615
▁ep	-10.6157
▁Nah	-10.6159
▁plenty	-10.6161
▁cruise	-10.6162
▁MS	-10.6168
▁center	-10.6169
▁rate	-10.6181
sk	-10.6182
▁HELP	-10.6184
▁29	-10.6185
▁talkin	-10.619
▁beta	-10.6193
mor	-10.6196
ld	-10.6197
▁thankyou	-10.62
▁DD	-10.62
▁missin	-10.6211
▁Europe	-10.6211
▁burning	-10.6212
▁hm	-10.6213
▁chinese	-10.6214
▁weak	-10.6216
▁mentioned	-10.6218
▁cookie	-10.622
▁locked	-10.623
ans	-10.6236
▁SEE	-10.6237
▁bedtime	-10.6242
▁bay	-10.6242
nce	-10.6245
ux	-10.6246
▁piano	-10.625
▁bunny	-10.6251
▁mmmm	-10.6255
▁THANK	-10.6263
▁east	-10.6263
▁LIKE	-10.6268
▁cho	-10.6269
▁Mad	-10.6274
ob	-10.6278
wwww	-10.6284
well	-10.6285
▁cereal	-10.6286
▁singer	-10.6287
▁fb	-10.6301
▁contract	-10.6304
▁parade	-10.6305
▁create	-10.6308
ill	-10.6312
▁bull	-10.6312
▁dates	-10.6313
▁HEY	-10.6318
▁zoo	-10.632
▁whils	-10.6322
▁picnic	-10.6326
▁idiot	-10.6328
AP	-10.6334
▁hadn	-10.6337
its	-10.6339
ture	-10.634
▁youu	-10.6341
▁comin	-10.6344
for	-10.6349
▁Tim	-10.6351
▁End	-10.6354
▁podcast	-10.6358
▁noooo	-10.6358
▁goood	-10.6362
wer	-10.6369
▁rule	-10.6371
▁meaning	-10.6371
▁His	-10.6371
▁downloaded	-10.6371
▁preparing	-10.6376
▁woken	-10.6379
▁apt	-10.6382
▁considering	-10.6382
▁shorts	-10.6389
▁wins	-10.6389
▁nothin	-10.6393
▁ci	-10.6398
▁texts	-10.6398
▁ATL	-10.64
▁Ex	-10.6409
▁file	-10.641
▁setting	-10.6411
pping	-10.6413
▁canceled	-10.6414
▁package	-10.6415
▁function	-10.6429
▁keys	-10.6429
▁holy	-10.643
▁drove	-10.6432
▁Mc	-10.6442
▁decision	-10.6448
▁impossible	-10.6448
▁garage	-10.6449
CC	-10.6455
CH	-10.6456
▁Ko	-10.6461
▁Forgot	-10.6467
▁runs	-10.647
▁Tried	-10.6471
▁Yum	-10.6474
oc	-10.6477
▁hide	-10.6483
▁aswell	-10.6484
▁funeral	-10.6485
▁creepy	-10.6485
▁asap	-10.6487
zy	-10.6488
ef	-10.649
▁bud	-10.6494
▁mah	-10.6494
▁FOLLOW	-10.6503
ect	-10.6504
▁suddenly	-10.6509
▁ob	-10.6511
▁lawn	-10.6512
▁lakers	-10.6514
▁Already	-10.6521
je	-10.6525
▁balls	-10.653
▁heads	-10.6537
▁yellow	-10.654
▁bang	-10.6543
uc	-10.6546
▁grown	-10.6549
▁vids	-10.6549
▁Tu	-10.655
▁consider	-10.6551
▁cars	-10.6553
iz	-10.6561
9	-10.6563
AY	-10.6572
▁skool	-10.6576
▁rub	-10.6577
▁drank	-10.6577
▁becoming	-10.6579
▁grr	-10.6579
▁bothered	-10.6581
ito	-10.6588
▁Radio	-10.6595
▁award	-10.6596
▁soft	-10.6598
can	-10.6601
▁Wonder	-10.6603
▁deck	-10.6604
▁ye	-10.6605
▁frustrated	-10.6613
▁closing	-10.6613
▁someday	-10.6619
▁sand	-10.6623
▁cal	-10.663
rie	-10.6641
▁Mmm	-10.6643
▁cleaned	-10.6649
▁american	-10.6649
▁bringing	-10.6653
▁listened	-10.6658
▁Bl	-10.666
▁competition	-10.6669
▁Perfect	-10.6669
▁Awwww	-10.6671
▁seats	-10.6672
▁These	-10.6672
▁cupcakes	-10.6678
▁selling	-10.668
oop	-10.6686
▁progress	-10.6688
▁spirit	-10.6689
▁crowd	-10.6691
▁360	-10.6694
▁Goodbye	-10.6709
▁mouse	-10.671
▁Kim	-10.6718
cy	-10.6721
eeeeee	-10.6724
▁storms	-10.6726
▁within	-10.6726
▁Kris	-10.6727
▁contacts	-10.6728
▁changes	-10.6729
ez	-10.673
LA	-10.6731
ON	-10.6733
▁beyond	-10.6744
▁Lu	-10.6746
▁lyrics	-10.6747
ax	-10.6748
▁kisses	-10.6753
▁tweeters	-10.6757
▁sauce	-10.6763
cent	-10.6765
▁Bill	-10.6785
az	-10.6789
▁Anyway	-10.6793
▁discovered	-10.6794
▁steal	-10.6795
▁wah	-10.6798
▁Band	-10.6798
▁Since	-10.68
▁Art	-10.6801
▁jerk	-10.6801
▁Book	-10.6804
▁beauty	-10.6804
▁oil	-10.6805
get	-10.6809
▁friendly	-10.6813
lll	-10.6815
anna	-10.6817
▁WORK	-10.6818
▁SAD	-10.6818
▁wise	-10.6819
▁compliment	-10.6819
▁including	-10.6819
star	-10.682
lk	-10.6825
ppy	-10.6827
▁noon	-10.6828
▁pure	-10.6831
▁amount	-10.6832
▁relationship	-10.6838
▁subject	-10.6838
▁Ti	-10.6841
▁Bless	-10.6842
ters	-10.6844
▁HAHAHA	-10.6845
▁Dead	-10.6845
net	-10.6847
▁besides	-10.6852
▁kicking	-10.6854
▁pouring	-10.6854
▁germany	-10.6859
mar	-10.6866
▁errands	-10.6876
▁similar	-10.6876
▁Island	-10.6881
▁char	-10.6883
▁fully	-10.6883
▁careful	-10.6889
▁trade	-10.6895
bit	-10.6896
▁user	-10.6901
sc	-10.6912
▁rent	-10.6915
▁sales	-10.692
▁driver	-10.692
▁Bi	-10.6924
eh	-10.6925
▁wifi	-10.6929
▁Definitely	-10.6933
▁parking	-10.6933
▁pi	-10.6937
▁respect	-10.6943
▁lessons	-10.6951
ji	-10.6952
▁trek	-10.6952
▁Lmao	-10.6953
ao	-10.6955
▁Steve	-10.6958
▁hungover	-10.6971
dge	-10.6972
▁ignore	-10.6973
▁bands	-10.6973
▁yoga	-10.6974
▁tomorow	-10.6976
▁parts	-10.6985
ump	-10.6999
▁Pat	-10.7
int	-10.7007
▁Sucks	-10.7008
▁ew	-10.7009
▁YEAH	-10.7009
uu	-10.7016
▁FA	-10.7018
▁dam	-10.7023
▁confusing	-10.7029
▁searching	-10.7035
▁momma	-10.7048
▁Dinner	-10.7048
▁script	-10.7048
▁Goin	-10.7049
unt	-10.7062
▁hating	-10.7062
▁Post	-10.7065
fu	-10.7067
▁wave	-10.7067
▁previous	-10.7067
▁effort	-10.7068
▁quiz	-10.7075
▁Iran	-10.7077
▁thinkin	-10.7079
▁Har	-10.708
▁Dream	-10.7081
▁perform	-10.7082
▁gd	-10.7085
▁court	-10.7087
▁fridge	-10.7088
▁students	-10.7101
▁Gah	-10.7103
▁Sky	-10.7108
▁Mum	-10.7118
▁general	-10.7118
▁bee	-10.7122
EST	-10.7123
▁sneak	-10.7126
val	-10.713
▁teen	-10.7131
▁lap	-10.7132
rge	-10.7133
▁LO	-10.7134
list	-10.7136
▁bags	-10.7141
▁dm	-10.7142
▁bur	-10.7143
▁port	-10.7145
▁ocean	-10.7145
▁wicked	-10.7145
▁lift	-10.7147
▁NIGHT	-10.7148
▁brings	-10.7151
hoo	-10.7152
▁Ohh	-10.7153
▁iron	-10.7155
▁ny	-10.7158
▁gold	-10.7163
▁bell	-10.7164
▁rules	-10.7177
▁edit	-10.7183
▁Sydney	-10.7184
▁suffering	-10.7186
mmm	-10.7187
▁herself	-10.7193
▁pal	-10.7196
▁stone	-10.7201
▁Camp	-10.7203
▁Seattle	-10.7204
▁Lets	-10.7207
lee	-10.7214
act	-10.7216
ast	-10.7218
▁wings	-10.7219
▁phones	-10.722
▁Fo	-10.7223
▁Chinese	-10.7224
▁pillow	-10.7224
▁awsome	-10.7225
▁Jason	-10.7225
▁cus	-10.7225
▁Cook	-10.7229
▁Xx	-10.723
▁DJ	-10.723
▁naked	-10.7231
ising	-10.7232
▁wana	-10.7245
▁App	-10.7246
▁Per	-10.7247
load	-10.7248
▁jacket	-10.7248
▁Andy	-10.7255
PP	-10.7256
▁Max	-10.7258
▁journey	-10.7263
▁Text	-10.7263
▁Alright	-10.7263
▁Queen	-10.7268
ib	-10.7274
ail	-10.7281
▁vo	-10.7281
▁Grand	-10.7282
▁suggest	-10.7282
ari	-10.7283
▁forgotten	-10.7286
▁cnt	-10.729
▁333	-10.7295
▁accept	-10.7297
▁Orlando	-10.7303
▁battle	-10.7306
▁pat	-10.7306
▁survive	-10.7309
▁shooting	-10.7311
▁ly	-10.7313
▁files	-10.7314
▁rap	-10.7316
down	-10.732
▁basketball	-10.7323
▁popular	-10.7323
▁fl	-10.7325
▁dia	-10.7328
▁LOT	-10.7336
▁bowling	-10.7336
vy	-10.7337
▁projects	-10.7338
▁begins	-10.7338
▁cra	-10.734
▁repair	-10.7342
▁MO	-10.7345
▁ri	-10.7353
▁easily	-10.7362
▁winner	-10.7369
ound	-10.7372
▁Ever	-10.7372
▁bru	-10.7375
▁adding	-10.7377
▁roast	-10.7383
▁King	-10.7384
▁bri	-10.7387
▁feature	-10.7389
▁wk	-10.7397
mins	-10.7397
▁tri	-10.7398
▁Song	-10.7399
▁allergic	-10.7402
▁fm	-10.7403
▁buzz	-10.7404
ENT	-10.7407
car	-10.7415
▁gossip	-10.7422
aaah	-10.7425
▁ITS	-10.7426
▁sch	-10.7429
▁hop	-10.7432
PS	-10.7433
▁Bummer	-10.7442
▁killer	-10.7443
▁Che	-10.7457
▁Nite	-10.746
▁wo	-10.7464
▁2010	-10.7465
▁cur	-10.7467
▁Isn	-10.7467
▁bucks	-10.747
aga	-10.7479
OR	-10.748
nne	-10.7481
▁DE	-10.7481
rrow	-10.7481
▁str	-10.7484
▁Ch	-10.7484
▁giant	-10.7486
▁artist	-10.7489
▁pad	-10.7492
ank	-10.7492
fest	-10.7494
ye	-10.7496
als	-10.7501
▁australia	-10.7503
ear	-10.7506
▁partner	-10.7509
▁matt	-10.7511
▁august	-10.7523
▁spider	-10.7525
▁passing	-10.7526
▁fried	-10.7532
▁cab	-10.7539
▁peanut	-10.7543
▁disney	-10.7544
▁feedback	-10.7544
▁dust	-10.7549
mmy	-10.7554
▁bedroom	-10.7555
▁aka	-10.7561
▁throwing	-10.7565
▁dads	-10.7565
▁papers	-10.7566
▁Spent	-10.7566
▁numbers	-10.7571
▁twin	-10.7575
▁boot	-10.7575
▁Dis	-10.7575
▁pleased	-10.7581
ities	-10.7582
▁happiness	-10.7584
▁Crazy	-10.7584
EL	-10.7587
ys	-10.7587
50	-10.7589
▁Italy	-10.7596
ess	-10.7601
▁McFly	-10.7604
▁brunch	-10.7605
▁password	-10.7605
▁Power	-10.7605
▁Men	-10.7606
▁coughing	-10.7606
▁prolly	-10.7606
key	-10.761
▁speech	-10.7624
▁tongue	-10.7625
▁talented	-10.7634
▁Crap	-10.7636
ition	-10.7643
▁comfort	-10.7644
▁celebrating	-10.7645
▁Food	-10.7648
▁Heart	-10.7649
▁sorted	-10.7649
▁tooo	-10.7652
▁insomnia	-10.7663
▁Final	-10.7665
▁simply	-10.7666
▁BFF	-10.7666
fo	-10.7672
▁jet	-10.7679
ona	-10.7679
▁George	-10.7687
▁Miami	-10.7687
▁monkey	-10.7687
▁Left	-10.7687
▁compare	-10.7695
▁wrk	-10.7698
▁events	-10.7699
nya	-10.7699
ICK	-10.7703
▁female	-10.7707
tain	-10.7707
▁Though	-10.7709
▁Goodmorning	-10.771
▁senior	-10.7711
▁uploaded	-10.7718
TV	-10.7719
▁noise	-10.7721
▁scream	-10.7725
bl	-10.7726
▁Dallas	-10.7728
▁sim	-10.7729
▁clip	-10.7731
▁nut	-10.7738
▁plant	-10.7739
▁installed	-10.774
▁king	-10.7742
pro	-10.7746
▁interest	-10.7748
▁Kevin	-10.775
ando	-10.7751
AD	-10.7752
▁coach	-10.7753
▁commercial	-10.7753
▁nt	-10.7754
▁gf	-10.7759
tie	-10.776
ose	-10.7761
tal	-10.7769
▁borrow	-10.777
▁typing	-10.777
▁Funny	-10.7771
▁En	-10.7773
▁tape	-10.7777
▁ii	-10.7778
▁cutting	-10.7781
▁enter	-10.7781
▁bt	-10.7781
▁tis	-10.7782
▁skills	-10.779
▁Driving	-10.779
▁preview	-10.779
▁jokes	-10.7791
▁HOME	-10.7802
gging	-10.7807
▁den	-10.7807
▁musical	-10.7808
▁Add	-10.7808
pr	-10.7809
▁Darn	-10.781
▁Farrah	-10.7811
▁ac	-10.7816
▁animal	-10.7816
ink	-10.7818
ats	-10.7819
▁Gosh	-10.782
▁rip	-10.7822
▁useful	-10.7823
▁dev	-10.7823
▁sync	-10.783
▁ughhh	-10.7832
▁comfy	-10.7832
eep	-10.7833
▁dishes	-10.7834
▁degree	-10.7837
▁bills	-10.7838
▁meat	-10.7841
▁hv	-10.7843
▁Oooh	-10.7847
▁OR	-10.7848
▁Season	-10.7853
ool	-10.7856
▁kitten	-10.786
▁Boyle	-10.786
▁heels	-10.7867
ware	-10.7871
US	-10.7872
▁Gi	-10.7874
▁Church	-10.7874
▁steak	-10.7874
▁noo	-10.7877
ria	-10.7888
▁master	-10.7889
cl	-10.789
▁gud	-10.789
▁opened	-10.7893
▁glorious	-10.7895
▁idol	-10.7901
▁Plan	-10.7901
▁ER	-10.7904
▁gl	-10.7904
ors	-10.7915
▁MI	-10.7919
rain	-10.7921
ddy	-10.7931
▁topics	-10.7933
▁Dance	-10.7933
▁HOW	-10.7934
ini	-10.7934
▁delay	-10.794
▁Blog	-10.7943
yr	-10.795
▁Angels	-10.7952
▁bk	-10.7953
▁pressure	-10.7959
▁mor	-10.7966
▁cru	-10.7968
▁plug	-10.7969
▁MAN	-10.7976
▁makin	-10.7976
▁lang	-10.7979
▁blind	-10.798
▁location	-10.8001
▁Ashley	-10.8001
▁unfollow	-10.8005
▁staff	-10.8005
▁Philippines	-10.8008
▁guest	-10.8013
▁anti	-10.8014
▁ce	-10.8022
▁Spring	-10.8022
▁layout	-10.8024
▁lock	-10.8025
▁ru	-10.8034
▁shoe	-10.806
▁TweetDeck	-10.8064
▁incredible	-10.8064
▁eu	-10.8065
▁babysitting	-10.8065
▁roof	-10.8066
▁Blood	-10.8069
▁Fair	-10.8069
▁member	-10.8069
▁Club	-10.807
▁common	-10.8073
▁spa	-10.8076
▁PR	-10.8079
▁Blah	-10.8082
▁reasons	-10.8082
AC	-10.8086
ations	-10.8088
ju	-10.8088
▁york	-10.8088
▁monster	-10.8091
▁Wi	-10.8092
lock	-10.8102
rl	-10.8107
gn	-10.811
▁gah	-10.8112
▁shape	-10.8116
ale	-10.8119
▁doll	-10.8123
▁audio	-10.8129
▁Ri	-10.8132
▁mm	-10.8146
▁Diversity	-10.815
▁Toronto	-10.815
▁fra	-10.8151
▁shi	-10.8155
▁Fail	-10.8158
▁include	-10.8158
iv	-10.8167
uk	-10.8169
▁est	-10.817
ome	-10.8171
rin	-10.8172
▁WAIT	-10.8173
▁RIGHT	-10.8174
▁Jeff	-10.8175
▁sunburnt	-10.8175
▁gloomy	-10.8176
▁RO	-10.8182
ries	-10.8183
hhhhh	-10.8185
ify	-10.8185
▁rat	-10.8186
ERS	-10.8191
wi	-10.8193
▁Oops	-10.8194
▁dreading	-10.8203
▁blip	-10.8204
▁Cleaning	-10.8206
▁tank	-10.8206
qua	-10.8208
▁BOO	-10.8208
▁Peter	-10.8214
▁chemistry	-10.8215
▁Robert	-10.8216
▁queen	-10.8219
▁Full	-10.822
▁yer	-10.8224
days	-10.8233
▁desktop	-10.8237
▁Catch	-10.8239
IS	-10.8241
▁trick	-10.8245
KE	-10.8249
▁Bu	-10.825
ker	-10.8251
ole	-10.8251
▁hopes	-10.8254
thing	-10.8256
pin	-10.8256
▁sec	-10.8257
ola	-10.8261
▁obsessed	-10.8262
▁screaming	-10.8263
▁Pink	-10.8264
▁seemed	-10.8266
▁Josh	-10.8269
▁longest	-10.8271
▁meetings	-10.8272
▁Read	-10.8273
▁thi	-10.8274
▁THERE	-10.8286
▁expecting	-10.8286
▁DONT	-10.8287
▁poker	-10.8287
▁harry	-10.8287
▁involved	-10.8287
▁Idk	-10.8289
app	-10.829
▁trash	-10.8293
ering	-10.8294
▁german	-10.8301
▁Terminator	-10.8302
▁Note	-10.8304
▁pup	-10.831
▁disappointing	-10.8312
▁breaks	-10.8314
▁Bro	-10.8317
▁spare	-10.832
▁cares	-10.8324
▁nor	-10.8327
▁Sl	-10.8328
▁Tweets	-10.8328
lit	-10.8331
▁swing	-10.8332
log	-10.8333
▁pl	-10.8335
▁Mor	-10.8335
▁te	-10.8341
▁WIN	-10.8341
▁tmr	-10.8342
▁collect	-10.8344
▁community	-10.8347
▁forgive	-10.8347
▁meh	-10.8353
▁GOING	-10.8353
▁mass	-10.8354
vis	-10.8359
▁animals	-10.8362
▁GR	-10.8364
ties	-10.8366
▁feelings	-10.8367
▁heyy	-10.8368
▁america	-10.837
▁op	-10.837
▁rep	-10.8372
▁cooked	-10.8372
▁flow	-10.8372
UR	-10.8387
▁SAT	-10.8387
▁hockey	-10.839
▁terribly	-10.839
▁wallet	-10.8395
▁cow	-10.84
▁effect	-10.8403
▁eventually	-10.8413
▁resist	-10.8414
▁duty	-10.8415
ative	-10.8416
▁hall	-10.8417
TT	-10.8417
▁cutest	-10.8417
▁moments	-10.8421
▁laughed	-10.8423
▁tra	-10.8425
uss	-10.8432
air	-10.8435
▁pocket	-10.8435
igh	-10.8435
▁pit	-10.8439
▁danny	-10.844
ox	-10.8442
▁convo	-10.8444
▁realise	-10.8449
▁HUGE	-10.8453
▁replying	-10.8455
▁tap	-10.8458
▁lightning	-10.8459
▁source	-10.8461
▁dick	-10.8461
▁lemon	-10.8461
▁rec	-10.8467
▁fries	-10.8468
▁gen	-10.8476
tern	-10.8479
▁frustrating	-10.8479
▁motivation	-10.8479
▁appt	-10.8482
▁om	-10.8485
▁Laying	-10.8488
▁pu	-10.8488
▁pasta	-10.8493
▁diff	-10.8495
lon	-10.8498
▁wud	-10.85
▁Rest	-10.8503
ire	-10.8508
▁Walk	-10.8511
▁sho	-10.8512
▁TR	-10.8514
▁adventure	-10.8524
▁Transformers	-10.8524
▁del	-10.8524
▁tend	-10.8524
▁chapter	-10.8527
▁PO	-10.8537
▁shud	-10.8539
press	-10.854
tting	-10.854
▁Hit	-10.8541
▁East	-10.8541
▁adam	-10.8545
war	-10.8549
▁grind	-10.8552
▁owe	-10.8554
▁Week	-10.8557
▁nom	-10.8557
▁poorly	-10.8557
▁GA	-10.8559
▁snack	-10.8563
▁rad	-10.8563
mber	-10.8567
▁yuck	-10.8569
▁manager	-10.8571
▁porn	-10.8572
▁conf	-10.8576
▁Bay	-10.8577
ison	-10.8583
▁fla	-10.8585
▁museum	-10.8591
▁dollars	-10.8591
▁tasty	-10.8592
▁audition	-10.8593
▁cafe	-10.8593
▁strip	-10.8595
▁bake	-10.8603
▁stolen	-10.8604
▁license	-10.8614
▁popcorn	-10.8614
▁Us	-10.8615
com	-10.8621
▁cure	-10.8624
▁sight	-10.8625
▁Pop	-10.8627
mes	-10.8628
tz	-10.863
▁hunting	-10.8633
▁yawn	-10.8636
▁somethin	-10.8637
▁gal	-10.864
▁HERE	-10.8644
ified	-10.8645
▁sweat	-10.8652
ime	-10.8654
ender	-10.8654
▁Mondays	-10.8656
▁ebay	-10.866
▁blink	-10.8661
▁mates	-10.867
ush	-10.8672
▁pity	-10.8673
▁Ly	-10.8675
▁Vote	-10.8679
ora	-10.868
▁teaching	-10.8681
▁Lauren	-10.8682
▁Awake	-10.8683
▁Half	-10.8687
▁cali	-10.8691
illa	-10.8695
▁skip	-10.8696
▁mission	-10.8699
ese	-10.8704
rri	-10.8706
▁Ice	-10.8706
▁OFF	-10.8713
▁tastes	-10.872
▁YA	-10.8723
▁Ph	-10.8724
▁Eric	-10.8728
▁thnx	-10.8732
▁logo	-10.8735
ada	-10.8735
▁Early	-10.8739
▁entertaining	-10.8743
dia	-10.8746
▁Ms	-10.8751
▁tu	-10.8751
set	-10.8752
▁despite	-10.8753
RS	-10.8754
▁Except	-10.8756
▁carry	-10.8758
VE	-10.8762
▁Drinking	-10.8766
▁alas	-10.8771
▁suffer	-10.8772
▁punch	-10.8774
ense	-10.8781
▁ver	-10.8782
form	-10.8782
▁Chillin	-10.8782
▁Sk	-10.8785
▁Shi	-10.879
▁pri	-10.8793
▁thingy	-10.8794
▁blonde	-10.8794
▁Fire	-10.8794
ual	-10.8796
▁Montana	-10.8797
▁unfair	-10.8797
▁Cause	-10.8797
▁freedom	-10.8798
pl	-10.8801
▁customer	-10.8801
elle	-10.8801
▁inspired	-10.8801
▁mc	-10.8809
ggy	-10.8813
▁VA	-10.8813
gr	-10.8815
▁lolz	-10.8816
▁sooner	-10.8818
▁tanning	-10.8822
▁Guys	-10.8823
▁offline	-10.8824
UT	-10.8833
▁gona	-10.8834
▁pr	-10.8835
▁theater	-10.8836
RR	-10.8839
▁Bout	-10.8841
▁socks	-10.8848
▁Spend	-10.8848
▁bound	-10.885
▁clearly	-10.8861
SE	-10.8865
▁lauren	-10.8866
▁square	-10.8866
▁adult	-10.8866
▁Xbox	-10.8867
IA	-10.8874
ven	-10.8878
▁Luck	-10.8879
▁REAL	-10.8883
▁pun	-10.8883
▁tunes	-10.8884
▁cu	-10.8888
▁Palm	-10.8889
▁accent	-10.889
▁brazil	-10.889
▁LoL	-10.8893
rate	-10.8895
▁Wondering	-10.8896
▁boom	-10.8902
▁sudden	-10.8904
ku	-10.8907
gar	-10.8912
▁softball	-10.8913
▁smoking	-10.8914
▁spec	-10.8919
▁fer	-10.892
▁News	-10.8922
▁failing	-10.8923
af	-10.893
▁crashing	-10.8932
▁Tour	-10.8932
▁pig	-10.8935
▁Bought	-10.8935
▁DID	-10.8944
cast	-10.8944
▁Twit	-10.8956
▁gum	-10.8958
▁awkward	-10.8959
▁semester	-10.8959
▁headphones	-10.8959
▁bites	-10.8961
▁playin	-10.8974
▁BBC	-10.8981
▁sadness	-10.8981
▁ALWAYS	-10.8982
▁above	-10.8982
und	-10.8989
▁assignments	-10.8992
▁Fan	-10.8998
yyyyy	-10.9006
▁Britney	-10.9006
▁Phone	-10.9006
▁itchy	-10.9007
▁normally	-10.9009
▁Mrs	-10.9011
▁fest	-10.9014
cker	-10.9026
▁toilet	-10.9034
read	-10.9034
tel	-10.9035
sy	-10.9041
▁force	-10.9043
HA	-10.9045
EEE	-10.9048
▁ben	-10.9052
▁chicago	-10.9053
▁grandpa	-10.9054
▁accidentally	-10.9054
▁India	-10.9057
ington	-10.9058
cut	-10.9061
mit	-10.9062
izz	-10.9063
▁deserved	-10.9064
▁skype	-10.9064
▁Boys	-10.9065
▁delivery	-10.9067
ici	-10.907
▁Buy	-10.9072
▁cloud	-10.9073
▁kit	-10.908
TE	-10.9081
▁pix	-10.9082
▁bump	-10.9082
▁Soo	-10.9088
▁disc	-10.9093
cre	-10.9094
▁windy	-10.9096
lp	-10.9097
▁browser	-10.9104
▁burger	-10.9104
▁incredibly	-10.9108
▁Sw	-10.9109
▁receive	-10.911
LI	-10.911
oy	-10.9111
▁Land	-10.9112
▁forced	-10.9112
▁jay	-10.9115
NS	-10.912
▁medicine	-10.9124
▁FTW	-10.9124
▁cutie	-10.9126
▁marketing	-10.9127
cess	-10.9135
▁highly	-10.9139
▁Def	-10.9152
▁princess	-10.9156
▁org	-10.9162
▁wrist	-10.9172
you	-10.9173
▁UR	-10.9173
▁sweetheart	-10.9173
▁accounts	-10.9175
▁curl	-10.9176
▁eff	-10.9177
▁Jen	-10.9179
gin	-10.9182
sta	-10.9186
ably	-10.9191
ero	-10.9193
▁sausage	-10.9195
▁collection	-10.9198
▁Austin	-10.9199
▁Both	-10.9201
▁CANT	-10.9202
▁However	-10.9204
▁tee	-10.9206
▁Ow	-10.9209
▁tele	-10.9213
▁jst	-10.9213
▁Bas	-10.9214
ians	-10.9216
iness	-10.9219
ila	-10.922
▁LONG	-10.9221
▁Ddeg	-10.9227
▁Woohoo	-10.9232
iest	-10.9232
▁spoke	-10.9235
▁kay	-10.9236
▁replace	-10.9239
▁desperate	-10.9241
▁failure	-10.9246
▁Run	-10.9246
▁semi	-10.925
▁grill	-10.9263
▁Kids	-10.9263
med	-10.9263
istic	-10.9264
▁split	-10.9267
▁reunion	-10.9268
▁China	-10.9271
▁coursework	-10.9272
▁Wars	-10.9274
▁emo	-10.9274
ich	-10.9277
▁sayin	-10.9278
▁custom	-10.9279
eat	-10.9279
izing	-10.9285
▁Dog	-10.9286
▁surely	-10.9287
hhhhhh	-10.9289
▁Los	-10.929
▁afterwards	-10.9295
▁eva	-10.9296
▁Mmmm	-10.9298
▁settle	-10.9301
▁Fa	-10.9306
▁31	-10.9306
▁cont	-10.9313
▁Fu	-10.9315
wan	-10.9318
▁sang	-10.932
▁Woot	-10.9329
mark	-10.9329
▁reminded	-10.933
▁emotional	-10.9333
▁sunglasses	-10.934
▁Hawaii	-10.934
▁Currently	-10.9341
▁ty	-10.9345
▁hiding	-10.9345
▁faith	-10.935
▁Watchin	-10.935
▁Class	-10.935
▁Te	-10.9353
▁sounded	-10.9357
▁German	-10.936
CA	-10.9361
MO	-10.9361
▁400	-10.9365
▁tire	-10.9367
▁forum	-10.9375
mate	-10.938
lla	-10.9381
▁sm	-10.9391
▁chem	-10.9392
▁spin	-10.9397
ani	-10.9397
pper	-10.9399
▁towards	-10.9401
▁Bon	-10.9401
▁Lea	-10.9403
▁Lake	-10.9403
NE	-10.9404
▁Ball	-10.9407
▁partying	-10.9411
▁Tra	-10.9411
▁TGIF	-10.9413
▁Shopping	-10.9414
▁ghost	-10.9414
▁Were	-10.9417
▁ash	-10.9418
tar	-10.9421
gle	-10.9422
▁prepare	-10.9424
▁wed	-10.9425
▁ways	-10.9427
▁brush	-10.9428
▁boots	-10.9429
▁duck	-10.9432
world	-10.9438
▁Running	-10.9439
▁actor	-10.9441
▁hahahah	-10.9442
▁shock	-10.9443
▁Mary	-10.9451
ali	-10.9459
GG	-10.9459
▁application	-10.9466
▁seven	-10.9466
▁minus	-10.947
▁SC	-10.9471
▁loop	-10.9472
ics	-10.9476
bel	-10.948
ain	-10.9486
▁mixed	-10.949
▁wonders	-10.949
ella	-10.949
▁Cup	-10.9492
ert	-10.9493
▁nh	-10.9493
▁Bra	-10.9504
▁awh	-10.9505
og	-10.9506
▁Jess	-10.9507
▁Brown	-10.9512
▁england	-10.9512
▁SHIT	-10.9514
▁tbh	-10.9516
▁zone	-10.9517
some	-10.9517
▁boooo	-10.9526
▁Bob	-10.9529
▁bitches	-10.9531
▁Pan	-10.9533
▁Lee	-10.9534
▁rocked	-10.9536
▁AP	-10.9536
▁username	-10.9537
▁junk	-10.9537
▁Daddy	-10.9544
bby	-10.9546
▁HELL	-10.9546
▁Cold	-10.9549
face	-10.9553
▁owner	-10.9553
avi	-10.9553
▁DuD	-10.9554
▁rise	-10.9554
▁pieces	-10.9555
▁baking	-10.9555
▁technology	-10.9561
ken	-10.9562
NG	-10.9563
▁role	-10.9565
▁Cla	-10.9565
▁uns	-10.9566
▁Kelly	-10.9567
▁AN	-10.9569
▁stores	-10.9574
▁guessing	-10.9581
▁Soooo	-10.9583
▁boxes	-10.9585
ood	-10.9586
▁Houston	-10.9586
▁Jordan	-10.9586
▁maintenance	-10.9586
▁landed	-10.9586
▁panic	-10.9587
IR	-10.9591
▁stinks	-10.9594
▁Cavs	-10.9595
▁national	-10.9596
▁Turn	-10.9596
ude	-10.9596
ura	-10.9597
▁purchase	-10.9597
▁Part	-10.9601
ID	-10.9605
▁cop	-10.9608
▁che	-10.9609
▁useless	-10.961
▁Ray	-10.9613
▁Va	-10.9613
▁hooked	-10.9618
▁THANKS	-10.9618
▁removed	-10.9624
ME	-10.9627
▁agreed	-10.9628
▁para	-10.9633
▁Tea	-10.9635
▁Spanish	-10.9636
▁macbook	-10.9637
▁trend	-10.9639
▁Spain	-10.9641
▁frozen	-10.9641
▁32	-10.9642
ric	-10.9646
OM	-10.9648
▁ti	-10.9655
▁sport	-10.9655
▁wireless	-10.9662
▁bugger	-10.9663
ending	-10.9666
▁Office	-10.9672
▁mountain	-10.9673
ban	-10.9673
▁poster	-10.9678
▁NC	-10.968
▁stairs	-10.9686
▁wood	-10.9686
▁washed	-10.9687
▁bust	-10.9687
not	-10.969
ved	-10.9692
els	-10.9697
▁dull	-10.9709
▁ku	-10.9711
▁Breakfast	-10.9712
OT	-10.9718
▁Tweetie	-10.9721
FF	-10.9721
▁Bah	-10.9722
top	-10.9722
▁favor	-10.9726
▁twi	-10.9732
nnnn	-10.9733
▁dare	-10.9733
▁Angel	-10.9736
▁Scott	-10.9736
▁montana	-10.9737
▁des	-10.9739
▁Leno	-10.9739
▁PE	-10.974
des	-10.9743
itch	-10.9746
▁chuck	-10.9751
▁members	-10.9753
nge	-10.9756
SP	-10.9758
▁physics	-10.9762
▁budget	-10.9762
▁bestfriend	-10.9765
▁HO	-10.9766
▁Youtube	-10.9767
▁youuu	-10.9768
▁Bell	-10.9771
▁bass	-10.9771
▁Team	-10.9777
▁SLEEP	-10.9787
▁habit	-10.9791
▁yeahh	-10.9792
▁wrap	-10.9792
AS	-10.9795
ded	-10.9799
PM	-10.9799
▁thumb	-10.9801
▁hunt	-10.9807
▁ban	-10.9814
▁Word	-10.9815
▁wknd	-10.9816
▁ab	-10.9817
een	-10.982
▁ham	-10.982
▁recipe	-10.9821
bus	-10.9828
▁timing	-10.9835
▁tick	-10.9837
▁vodka	-10.9838
▁lord	-10.9841
▁disappeared	-10.9844
▁Studying	-10.9848
▁plate	-10.9851
GB	-10.9864
▁information	-10.9864
▁yey	-10.9868
▁GM	-10.9869
▁bin	-10.987
▁gra	-10.9873
▁blues	-10.9875
▁jess	-10.9877
▁Ni	-10.9882
LO	-10.9889
▁cricket	-10.989
rat	-10.989
▁josh	-10.9896
UN	-10.9896
▁fee	-10.9899
ching	-10.9905
NN	-10.9906
eb	-10.9908
▁Street	-10.9915
▁fishing	-10.9916
▁escape	-10.9917
▁fin	-10.9917
rent	-10.9918
girl	-10.9922
▁prize	-10.9922
▁Grrr	-10.9923
qu	-10.9925
▁mike	-10.9925
▁Twi	-10.9931
▁flick	-10.9933
▁stalker	-10.9939
▁MORNING	-10.9941
▁graduating	-10.9941
▁rescue	-10.9941
▁position	-10.9941
cal	-10.9945
nnie	-10.995
▁WHO	-10.9951
ology	-10.9959
11	-10.9959
▁patient	-10.9959
▁successful	-10.9964
▁Friend	-10.9964
▁NA	-10.9966
▁NOTHING	-10.9967
▁opportunity	-10.9967
▁Potter	-10.9968
ros	-10.9969
▁playlist	-10.9973
▁bat	-10.9977
lum	-10.9979
▁rains	-10.998
▁Roll	-10.9986
ald	-10.9988
▁sittin	-10.9989
NA	-10.9994
ium	-10.9996
▁chu	-10.9996
▁carpet	-10.9997
▁Touch	-10.9997
▁thankful	-10.9999
▁plain	-10.9999
▁salt	-11
▁surf	-11.0001
▁multi	-11.0002
ree	-11.0002
▁Je	-11.0003
▁Lil	-11.0012
▁Wal	-11.0013
▁tax	-11.0016
▁divorce	-11.0019
▁monitor	-11.0019
▁OVER	-11.0021
▁Bri	-11.0029
▁career	-11.0031
▁younger	-11.0033
IES	-11.0038
▁April	-11.0045
▁Microsoft	-11.0045
▁History	-11.0045
▁happier	-11.0045
▁National	-11.0047
▁transfer	-11.0049
▁gain	-11.0056
▁dies	-11.0056
▁shortly	-11.0057
▁prove	-11.0069
▁virtual	-11.0071
▁lower	-11.0076
▁taco	-11.0078
▁states	-11.0083
▁created	-11.0092
▁Eat	-11.0094
▁vampire	-11.0097
▁genius	-11.0097
▁addiction	-11.0099
▁tiring	-11.0099
▁LIVE	-11.0101
▁fixing	-11.0101
▁Year	-11.0102
▁ray	-11.0102
▁urgh	-11.0103
▁DdegD	-11.0105
▁Times	-11.0107
▁male	-11.0112
▁Guy	-11.0117
eg	-11.0118
bra	-11.0119
rest	-11.0119
▁HER	-11.012
▁Law	-11.0121
▁Japan	-11.0123
▁security	-11.0123
▁pathetic	-11.0123
▁intense	-11.0124
▁Ireland	-11.0124
▁Chuck	-11.0127
▁blanket	-11.0129
tes	-11.0129
lf	-11.0133
▁photography	-11.0135
▁filling	-11.0139
▁HU	-11.0141
▁Amy	-11.0143
▁premiere	-11.0146
▁slice	-11.015
▁transformers	-11.0151
▁bah	-11.0152
TER	-11.0154
tty	-11.0156
▁marry	-11.0156
SA	-11.0161
ave	-11.0161
▁choc	-11.0164
▁ROCK	-11.0167
ched	-11.0168
▁solo	-11.0174
▁TWEET	-11.0176
▁slide	-11.0181
▁wheel	-11.0182
OOOO	-11.0186
iss	-11.0189
▁belong	-11.0192
illion	-11.0195
▁Brian	-11.0197
zo	-11.02
▁Ran	-11.0201
▁themselves	-11.0203
▁EVERYONE	-11.0203
▁celebration	-11.0203
▁target	-11.0203
▁Absolutely	-11.0203
▁envy	-11.0204
▁Drag	-11.0205
▁Later	-11.0207
ALL	-11.0214
▁Si	-11.0214
▁bon	-11.0214
▁shiny	-11.0214
stone	-11.0216
xx	-11.0221
▁spoil	-11.0221
▁pla	-11.0226
▁bastard	-11.0229
▁dreaming	-11.023
▁reaction	-11.0231
▁climb	-11.0232
▁blogging	-11.0233
▁blogs	-11.0241
▁insurance	-11.0243
▁pitch	-11.025
OS	-11.0253
▁hint	-11.0255
▁downstairs	-11.0256
▁scare	-11.0256
life	-11.0258
▁bot	-11.0261
▁rt	-11.0264
▁Light	-11.0264
▁LI	-11.0268
▁cor	-11.0269
▁Luv	-11.0269
har	-11.0271
▁prepared	-11.0271
▁metal	-11.0274
▁Gr	-11.0275
▁buddies	-11.0283
▁Sunny	-11.0286
▁tube	-11.029
▁noodles	-11.0299
MB	-11.0299
▁clients	-11.0304
▁waitin	-11.0304
▁Water	-11.0308
▁jersey	-11.0309
▁strawberries	-11.0309
ati	-11.0316
▁icon	-11.0318
▁product	-11.032
▁Kill	-11.032
▁cooler	-11.0321
ook	-11.0323
▁sry	-11.0327
▁tub	-11.0328
rrrrr	-11.0329
▁Wo	-11.0331
80	-11.0333
▁hasnt	-11.0334
▁Japanese	-11.0336
▁nigga	-11.0336
▁dislike	-11.0336
gggg	-11.034
▁Shower	-11.034
▁dye	-11.034
▁Katie	-11.0343
amp	-11.0344
▁stuffed	-11.0347
▁honor	-11.0349
▁comic	-11.035
▁neighbors	-11.0355
dddd	-11.0356
HH	-11.036
▁according	-11.0363
▁police	-11.0363
▁Dammit	-11.0363
▁TW	-11.0365
nie	-11.0366
nor	-11.0366
▁SM	-11.0369
aught	-11.037
▁tat	-11.0374
▁Gar	-11.0375
ATE	-11.0375
▁Talking	-11.038
▁purpose	-11.039
▁Soon	-11.0391
away	-11.0391
ort	-11.0394
▁neighbor	-11.0397
▁laid	-11.04
▁task	-11.0403
▁Hill	-11.0406
▁Flu	-11.0406
▁Jus	-11.0407
▁completed	-11.041
▁users	-11.0414
▁Um	-11.0416
▁display	-11.0417
▁Headache	-11.0418
▁legal	-11.0419
aging	-11.0419
▁Nobody	-11.0422
vid	-11.0423
▁warning	-11.0425
une	-11.0426
▁Exam	-11.0434
▁prayer	-11.0441
▁reg	-11.0442
▁Wolverine	-11.0444
▁snuggle	-11.0444
▁WI	-11.0444
▁potter	-11.0448
▁LAST	-11.0448
▁deadline	-11.045
▁perfectly	-11.0451
kkk	-11.0457
▁ge	-11.0458
hem	-11.0458
▁nicely	-11.0459
▁kim	-11.0465
▁Met	-11.0467
▁Ahhhh	-11.047
▁protect	-11.047
▁grandparents	-11.0471
▁Swift	-11.0471
▁bridge	-11.0474
▁Jam	-11.048
▁Ab	-11.0482
▁adore	-11.0486
▁natural	-11.0491
▁sc	-11.0493
▁aching	-11.0498
▁Atlanta	-11.0498
▁horror	-11.0498
▁chores	-11.0499
▁thread	-11.0499
▁ble	-11.05
rc	-11.0506
▁earn	-11.0508
▁ako	-11.0512
▁tall	-11.0512
▁solution	-11.0512
▁Uni	-11.0515
▁faces	-11.0517
▁Tweetdeck	-11.0526
▁SUMMER	-11.0526
▁florida	-11.0526
▁dropping	-11.0528
▁CH	-11.0536
▁reached	-11.0537
▁promised	-11.0538
oooooooo	-11.0541
▁gang	-11.0541
▁included	-11.0543
▁Thanx	-11.0544
▁Mal	-11.0545
▁Cap	-11.0551
▁graduated	-11.0552
▁negative	-11.0553
▁gurl	-11.0554
▁Fox	-11.0554
▁depends	-11.0557
▁oven	-11.0557
▁takin	-11.0564
▁shops	-11.0572
▁tail	-11.0574
▁haz	-11.0576
▁Singapore	-11.058
▁silver	-11.0581
▁remix	-11.0581
▁cruel	-11.0583
▁pretend	-11.0583
▁paul	-11.0587
▁fox	-11.0588
▁sarah	-11.0588
▁chew	-11.0588
▁complaining	-11.0601
▁recommendation	-11.0601
▁Bull	-11.0601
itter	-11.0602
▁teh	-11.0603
▁whore	-11.0607
cat	-11.0611
lip	-11.0613
▁State	-11.0613
▁panda	-11.0614
▁Link	-11.0617
ika	-11.0623
▁lover	-11.0624
ake	-11.0624
▁muscle	-11.0625
▁ummm	-11.0625
▁Perhaps	-11.0636
▁spelling	-11.0637
▁judge	-11.0637
nks	-11.0647
rea	-11.0648
serv	-11.0648
▁homie	-11.0659
mu	-11.066
▁British	-11.0664
▁Hugs	-11.0666
▁Put	-11.0682
▁joining	-11.0686
ently	-11.0689
▁Justin	-11.069
▁comedy	-11.0691
▁Firefox	-11.0691
▁TOMORROW	-11.0691
▁ignoring	-11.0691
▁typical	-11.0691
▁Obama	-11.0691
▁Demons	-11.0691
▁demand	-11.0691
▁Garden	-11.0692
▁bre	-11.0692
▁helpful	-11.0694
▁tweeple	-11.0695
▁whoa	-11.0695
▁NN	-11.0695
ration	-11.0703
▁map	-11.0706
▁fur	-11.0708
wn	-11.0709
▁Fe	-11.071
▁thunderstorm	-11.0711
▁curse	-11.0713
▁tie	-11.0713
▁blank	-11.0715
▁HIM	-11.0717
▁michael	-11.0719
▁bracelet	-11.0719
▁WoW	-11.072
▁reference	-11.0723
▁knw	-11.0724
eeeeeee	-11.0731
▁Packing	-11.0731
aaaaaa	-11.0735
ih	-11.0742
▁blows	-11.0742
nic	-11.0746
▁bleh	-11.0747
▁rainbow	-11.0747
▁potential	-11.0747
▁SU	-11.0749
▁wil	-11.075
IGHT	-11.075
▁babes	-11.0752
▁waited	-11.0754
▁Ki	-11.0754
▁beans	-11.0762
▁signal	-11.0762
▁Ci	-11.0763
▁gun	-11.0765
rgh	-11.0766
zzz	-11.0769
▁promo	-11.0772
▁definately	-11.0775
▁strike	-11.0775
▁LOST	-11.0775
▁Doctor	-11.0777
▁75	-11.0777
▁prep	-11.0777
▁theatre	-11.0778
▁nxt	-11.0779
▁Road	-11.078
ov	-11.078
▁WOO	-11.0783
▁Web	-11.079
zi	-11.0795
▁deliver	-11.0795
▁exact	-11.0797
▁trans	-11.0797
▁backup	-11.0801
▁AH	-11.0801
▁September	-11.0803
▁families	-11.0803
▁Moving	-11.0804
▁Under	-11.0804
▁entry	-11.0804
▁closet	-11.0806
DE	-11.0809
▁items	-11.0811
▁Jim	-11.0816
▁Rose	-11.0816
cie	-11.0827
▁complicated	-11.0831
▁stretch	-11.0831
▁recital	-11.0831
▁Far	-11.0832
▁Hubby	-11.0832
▁ahah	-11.0832
▁scar	-11.0835
▁biz	-11.0836
▁Yummy	-11.0843
▁pounds	-11.0844
▁48	-11.0846
▁hows	-11.0853
du	-11.0857
▁mental	-11.0857
▁frame	-11.0858
▁volunteer	-11.0859
▁remote	-11.086
▁Italian	-11.086
▁apply	-11.0862
era	-11.0864
▁cries	-11.0868
ique	-11.0875
▁discover	-11.0878
▁recent	-11.0881
▁farm	-11.0882
▁recovering	-11.0882
sey	-11.0883
sha	-11.0885
▁cramps	-11.0886
▁Reg	-11.0886
▁became	-11.0888
▁domain	-11.0888
▁claim	-11.0889
ei	-11.089
▁meee	-11.0894
▁Port	-11.0898
teen	-11.0899
▁reviews	-11.0903
▁Low	-11.0904
mas	-11.0914
▁trees	-11.0915
▁swift	-11.0916
▁further	-11.0917
▁Phil	-11.092
▁SOME	-11.092
mic	-11.0921
▁string	-11.0926
▁Slep	-11.0931
▁nightmares	-11.0932
AAA	-11.0933
▁nyc	-11.0938
▁ace	-11.0942
▁wore	-11.0943
▁Char	-11.0944
▁Chelsea	-11.0945
▁icecream	-11.0945
SU	-11.0946
▁arse	-11.0947
CK	-11.0947
▁beats	-11.0948
iya	-11.0953
▁brownies	-11.0955
▁confirmed	-11.0958
▁tells	-11.0959
▁annoy	-11.0959
▁95	-11.096
tri	-11.0962
cial	-11.0967
▁tracks	-11.0968
▁Brother	-11.0968
▁novel	-11.0969
▁Des	-11.0969
▁stressful	-11.097
pot	-11.0971
cul	-11.0972
▁Cute	-11.0972
▁SHOW	-11.0974
▁guide	-11.0974
▁mummy	-11.0976
▁friggin	-11.0977
▁Download	-11.0978
▁Idol	-11.0983
zzy	-11.0988
▁remove	-11.0989
▁mega	-11.0998
▁metro	-11.0999
unch	-11.1001
▁Melbourne	-11.1002
▁puppies	-11.1002
▁Britain	-11.1002
▁rofl	-11.1002
▁ashley	-11.1003
▁ryan	-11.1005
▁nature	-11.1009
tttt	-11.1014
ace	-11.1017
▁sur	-11.102
▁heal	-11.102
▁Fall	-11.102
PE	-11.1027
▁filming	-11.1028
▁pregnant	-11.1031
▁FEEL	-11.1031
▁Jimmy	-11.1031
post	-11.1033
▁kat	-11.1034
rre	-11.1038
▁Ku	-11.104
▁Louis	-11.1042
▁bleeding	-11.1043
▁concerts	-11.1045
HHH	-11.1047
▁dj	-11.1047
40	-11.1048
▁Days	-11.1054
▁doggie	-11.1055
▁MacBook	-11.106
▁Three	-11.1064
fl	-11.1067
eek	-11.1071
▁goodmorning	-11.1074
▁route	-11.1075
▁Bit	-11.1084
▁potato	-11.1084
▁forecast	-11.1088
▁BORED	-11.1088
▁digital	-11.1088
▁sup	-11.1091
▁reception	-11.1094
▁ski	-11.1099
▁lit	-11.1102
▁pour	-11.1113
▁SL	-11.1114
▁LVATT	-11.1117
▁dessert	-11.1117
▁umbrella	-11.1117
▁busted	-11.1118
▁asshole	-11.1119
▁roommate	-11.112
point	-11.1122
▁stat	-11.1122
▁greet	-11.1125
▁Sea	-11.1126
▁assume	-11.1126
iki	-11.1132
▁fre	-11.1136
vers	-11.1137
▁root	-11.1142
▁celebrity	-11.1146
▁pleasant	-11.1146
▁College	-11.1146
rum	-11.1147
▁SUCKS	-11.1148
▁Loves	-11.1149
▁prices	-11.1155
rey	-11.1163
▁Wed	-11.1164
▁sleepover	-11.1167
uring	-11.1167
▁drivers	-11.1168
rit	-11.1169
▁grrrr	-11.1172
▁electric	-11.1175
▁Sunshine	-11.1176
▁LIFE	-11.1176
▁cherry	-11.1176
▁patch	-11.1181
▁BU	-11.1181
▁hyper	-11.1185
▁hood	-11.1186
ult	-11.1189
▁dork	-11.1193
▁SOOO	-11.1196
▁phil	-11.1196
take	-11.12
MM	-11.1204
▁sooooooo	-11.1205
▁yogurt	-11.1205
▁Holiday	-11.1205
▁grateful	-11.1205
▁noone	-11.1207
▁lips	-11.1208
▁Sal	-11.1211
▁Gutted	-11.1234
▁Writing	-11.1234
▁FROM	-11.1234
▁photoshop	-11.1236
▁purse	-11.1236
▁curry	-11.1236
▁Story	-11.1238
▁THEY	-11.1241
▁naw	-11.1243
mmmm	-11.1243
▁awwwww	-11.1245
▁RA	-11.1246
▁AL	-11.1248
▁hacked	-11.1249
▁theyre	-11.1249
▁Sta	-11.1257
▁cum	-11.126
▁Join	-11.1266
▁stack	-11.127
▁returned	-11.1271
90	-11.1274
▁beef	-11.1276
▁fone	-11.1286
▁Qui	-11.1289
▁LOVED	-11.129
▁excitement	-11.1293
▁funn	-11.1293
▁flew	-11.1293
▁palm	-11.1309
▁Hair	-11.1311
▁Mexico	-11.1323
▁eve	-11.1323
▁stu	-11.1324
▁Many	-11.1327
▁Ver	-11.1332
aint	-11.1339
▁xox	-11.1339
▁SW	-11.1341
eva	-11.1343
▁und	-11.1343
▁cud	-11.1354
▁Wanted	-11.1356
▁Flight	-11.136
▁mint	-11.136
▁stink	-11.1361
▁forgetting	-11.1364
▁Listen	-11.1364
▁cupcake	-11.1369
zer	-11.137
▁pumped	-11.137
▁creep	-11.1371
▁Heh	-11.1371
▁twits	-11.1373
▁routine	-11.1382
▁murder	-11.1382
▁plants	-11.1383
▁bein	-11.1385
▁Cho	-11.1396
▁rot	-11.1399
▁err	-11.14
▁colors	-11.14
llie	-11.1405
▁55	-11.1406
▁express	-11.1406
▁appears	-11.1406
▁dating	-11.1407
cia	-11.1407
▁pile	-11.1411
▁overnight	-11.1413
▁WISH	-11.1413
▁subway	-11.1414
ht	-11.1415
▁dollar	-11.1416
▁Cu	-11.1417
▁disgusting	-11.1419
▁SHE	-11.1423
eal	-11.1428
▁Brad	-11.1429
▁chase	-11.1432
▁Ash	-11.1436
▁birth	-11.1439
▁effing	-11.1439
abi	-11.144
▁diversity	-11.1442
▁exchange	-11.1442
▁woah	-11.1443
dies	-11.1443
▁coolest	-11.1443
TO	-11.1445
lor	-11.1446
come	-11.1448
▁Knight	-11.1449
▁tim	-11.1454
▁whoop	-11.1456
▁messing	-11.1457
cks	-11.1463
▁disappear	-11.1466
▁baked	-11.1467
12	-11.1471
▁Chocolate	-11.1472
▁Graduation	-11.1472
▁multiple	-11.1472
▁stalk	-11.1472
▁Manchester	-11.1473
▁Edward	-11.1474
ular	-11.1475
▁ev	-11.1481
hen	-11.1484
MP	-11.1485
MI	-11.1487
▁Wak	-11.1491
▁Pu	-11.1492
▁answered	-11.1492
▁gee	-11.1496
▁dope	-11.1498
▁hated	-11.1499
▁images	-11.15
▁Charlie	-11.1503
▁proof	-11.1504
OSS	-11.1508
tur	-11.1509
▁Bet	-11.1514
▁james	-11.1515
▁iced	-11.152
▁wan	-11.1522
▁coat	-11.1523
▁Pray	-11.1525
▁aye	-11.1529
ahaha	-11.1529
▁Wishes	-11.1533
▁skinny	-11.1534
▁ONLY	-11.1535
ELL	-11.1538
▁bun	-11.1541
▁Sister	-11.1544
▁Dar	-11.1547
▁computers	-11.1547
par	-11.1548
tly	-11.1548
▁IE	-11.155
▁hits	-11.1553
ugg	-11.1554
aha	-11.1558
▁caffeine	-11.1562
▁grumpy	-11.1562
▁distance	-11.1562
▁anxious	-11.1562
▁value	-11.1563
▁Whats	-11.1564
▁MSN	-11.1566
win	-11.1569
▁BF	-11.1571
▁menu	-11.1577
mel	-11.1581
pet	-11.1581
kes	-11.1588
▁Dark	-11.1588
▁recorded	-11.1588
▁NE	-11.1589
▁Col	-11.1593
▁mee	-11.1595
▁Mel	-11.1595
▁pills	-11.1604
▁remain	-11.1606
▁geez	-11.162
▁Pri	-11.1621
▁rolling	-11.1623
▁SUPER	-11.1623
▁biology	-11.1624
▁bow	-11.1625
▁pepper	-11.1625
rch	-11.1626
▁Yet	-11.163
▁mango	-11.1632
▁Finish	-11.1635
▁unable	-11.1635
▁Robin	-11.1636
▁Min	-11.1642
▁thou	-11.1647
▁theory	-11.1649
▁BR	-11.1652
▁Thunder	-11.1654
▁torture	-11.1654
cky	-11.1659
▁pulling	-11.1663
15	-11.1664
table	-11.1669
▁smiles	-11.1672
▁ads	-11.1672
mmer	-11.1682
aid	-11.1682
▁Fawcett	-11.1685
▁concentrate	-11.1685
▁texas	-11.1685
▁Storm	-11.1685
▁Blackberry	-11.1685
▁skirt	-11.1685
▁Worst	-11.1687
▁gooood	-11.1688
▁aches	-11.1688
▁waves	-11.1691
II	-11.1693
rah	-11.1695
ggle	-11.1698
▁BS	-11.1698
▁Ste	-11.1698
▁wars	-11.1699
ments	-11.1704
▁TA	-11.1705
▁Care	-11.1705
inq	-11.1712
▁dealing	-11.1714
▁material	-11.1715
▁Pizza	-11.1716
▁precious	-11.1716
▁heaps	-11.1716
▁cracked	-11.1716
ging	-11.1719
▁recover	-11.1726
▁ANY	-11.1727
▁kar	-11.1729
▁Job	-11.173
▁CR	-11.173
wwwwww	-11.1732
▁raise	-11.1734
▁tad	-11.1737
▁yesss	-11.1737
KK	-11.1741
▁Hahah	-11.1741
lot	-11.1742
usion	-11.1743
▁wid	-11.1743
right	-11.1744
BA	-11.1745
▁unhappy	-11.1746
▁reckon	-11.1746
▁lounge	-11.1747
▁convert	-11.1747
▁straighten	-11.1748
▁sucky	-11.1749
▁personally	-11.1751
▁XX	-11.1753
shop	-11.1755
▁homemade	-11.1755
OOO	-11.1759
▁planet	-11.1759
▁hmmmm	-11.1762
▁plays	-11.1773
hat	-11.1774
▁Fly	-11.1775
▁exp	-11.1776
▁Kind	-11.1777
llll	-11.178
low	-11.1781
▁NBA	-11.1781
▁bagel	-11.1781
▁Wh	-11.1784
▁ref	-11.1784
▁Bing	-11.1786
▁hor	-11.179
br	-11.1792
▁convince	-11.1794
NC	-11.1798
▁edge	-11.18
▁bash	-11.1801
lle	-11.1807
phone	-11.181
fin	-11.1811
▁somewhat	-11.1813
▁coverage	-11.1814
▁base	-11.1814
▁Mornin	-11.1815
▁Indian	-11.1816
▁lag	-11.1819
▁unit	-11.182
▁drugs	-11.1823
▁Sign	-11.1823
▁bruise	-11.1824
▁jb	-11.1826
▁rockin	-11.1827
▁Flo	-11.1835
▁reminder	-11.1835
▁tuned	-11.1838
▁Nadal	-11.184
lang	-11.1844
▁ple	-11.1845
NO	-11.1846
▁UN	-11.1855
▁gar	-11.1857
▁donuts	-11.1866
▁addictive	-11.1871
bert	-11.1872
▁kevin	-11.1873
▁Walking	-11.1875
▁answers	-11.1876
▁dizzy	-11.1876
DY	-11.1879
ula	-11.188
▁backyard	-11.1881
▁wha	-11.1881
▁higher	-11.1886
▁hangin	-11.1887
▁peaceful	-11.1888
▁Meeting	-11.1889
ific	-11.1895
▁hy	-11.1896
▁Grr	-11.1899
▁earthquake	-11.1902
▁WANNA	-11.1902
▁hum	-11.1904
iN	-11.1904
▁pride	-11.1905
▁fro	-11.1905
▁tool	-11.1905
▁thin	-11.1907
ically	-11.1909
osh	-11.1913
band	-11.1914
▁Bur	-11.1915
▁HP	-11.1917
nit	-11.1924
▁options	-11.1924
▁Hand	-11.1925
▁disco	-11.1927
▁sta	-11.1927
self	-11.1928
▁smooth	-11.1929
▁bob	-11.193
ram	-11.1934
▁plastic	-11.1934
▁indoors	-11.1934
▁Ohhh	-11.1934
▁therapy	-11.1934
▁crisp	-11.1934
▁COOL	-11.1936
▁dresses	-11.1937
RK	-11.1941
▁charm	-11.1943
▁WH	-11.1944
▁flights	-11.1944
▁ou	-11.1949
▁SD	-11.1953
▁Grey	-11.1953
oooooooooo	-11.1955
▁films	-11.1957
lam	-11.1957
lllll	-11.1965
▁balance	-11.1965
▁universe	-11.1965
▁crunch	-11.1965
▁Mommy	-11.1968
▁Andrew	-11.1969
hm	-11.1969
HO	-11.1971
▁blew	-11.1973
▁active	-11.1974
▁statement	-11.1976
ett	-11.1977
rick	-11.1977
▁kills	-11.1977
▁Mind	-11.198
▁Pen	-11.1983
pen	-11.1985
▁mas	-11.1988
▁ee	-11.1991
▁drain	-11.1991
▁lecture	-11.1997
▁Gettin	-11.1998
VA	-11.1998
▁device	-11.1998
▁france	-11.1999
▁distracted	-11.2004
▁tent	-11.2006
cr	-11.2006
lyn	-11.2008
▁Ken	-11.2014
chy	-11.2019
▁ftw	-11.2022
boo	-11.2024
▁Jersey	-11.2029
▁sob	-11.2029
▁ot	-11.2033
dding	-11.2033
ony	-11.2034
▁raw	-11.2036
▁traveling	-11.2036
▁geo	-11.2038
▁upon	-11.2039
▁Dec	-11.204
▁randomly	-11.2041
▁ji	-11.2047
ient	-11.2048
▁Bloody	-11.2054
wh	-11.2054
▁JA	-11.2055
▁Bank	-11.2056
▁cakes	-11.2056
pers	-11.2056
▁held	-11.2056
▁flower	-11.2057
▁Excellent	-11.206
▁Festival	-11.206
▁lemme	-11.206
▁necklace	-11.206
▁Wtf	-11.2062
▁sofa	-11.2072
lay	-11.2073
▁TY	-11.2076
▁standard	-11.2077
▁Coming	-11.2077
▁hol	-11.2084
▁rose	-11.209
▁SCHOOL	-11.2092
▁rabbit	-11.2092
▁author	-11.2092
▁clever	-11.2092
▁ASAP	-11.2093
▁soaked	-11.2093
▁Change	-11.2094
▁sober	-11.2094
▁worn	-11.2097
shed	-11.21
▁tw	-11.2101
ily	-11.2101
▁os	-11.2102
▁Metro	-11.2103
▁sickness	-11.2103
▁jazz	-11.2105
▁DONE	-11.2111
▁safely	-11.2116
ACK	-11.2117
▁sorta	-11.2124
▁Amazon	-11.2124
▁NKOTB	-11.2124
▁discount	-11.2125
▁Seeing	-11.2127
▁Val	-11.2129
iti	-11.2131
BS	-11.2133
▁Philly	-11.2133
▁Prom	-11.2133
sure	-11.2134
grad	-11.2141
urn	-11.2142
real	-11.2142
▁cons	-11.2147
GA	-11.2149
▁doo	-11.215
tre	-11.2154
▁mexican	-11.2156
lton	-11.2157
▁LMFAO	-11.2158
play	-11.2158
▁blush	-11.2159
EEEE	-11.2161
▁Cut	-11.2161
▁girlie	-11.2161
berry	-11.2162
▁Cannot	-11.2163
▁Burn	-11.2163
▁Ce	-11.2169
▁Update	-11.2175
▁replaced	-11.2175
▁Sundays	-11.2179
▁uber	-11.2181
▁wack	-11.2181
▁smoothie	-11.2186
▁Joy	-11.2187
▁humid	-11.2189
▁Bus	-11.2196
DD	-11.2196
▁tab	-11.2196
▁aid	-11.2198
long	-11.22
▁lov	-11.2204
▁haa	-11.2216
▁designer	-11.2217
▁built	-11.2221
▁mirror	-11.2221
▁36	-11.2221
▁chain	-11.2223
▁kris	-11.2225
IM	-11.2225
▁braces	-11.2226
▁mums	-11.2231
lim	-11.2242
▁shocked	-11.2246
▁hosting	-11.2248
▁qui	-11.2252
▁sneezing	-11.2253
ease	-11.2255
▁joking	-11.2255
▁rly	-11.2256
▁Smile	-11.2257
▁brew	-11.2258
▁Hah	-11.2259
▁Town	-11.2261
▁pump	-11.2263
aaay	-11.2268
45	-11.2274
ants	-11.2278
▁Ughh	-11.2282
▁flavor	-11.2286
▁britney	-11.2286
▁solid	-11.2287
▁il	-11.229
▁Ac	-11.2291
ees	-11.2291
▁URL	-11.2292
zie	-11.2293
ipping	-11.2296
▁Kat	-11.23
▁aware	-11.2302
ils	-11.2302
ines	-11.2303
lia	-11.2306
▁headaches	-11.2308
▁combo	-11.2309
▁workshop	-11.2315
▁tomato	-11.2315
▁scrap	-11.2318
▁strength	-11.2319
▁Indeed	-11.2319
▁Smith	-11.2319
nda	-11.2319
▁range	-11.2323
umble	-11.2324
▁Lisa	-11.2324
ira	-11.2326
▁OC	-11.2328
lash	-11.2329
shi	-11.2329
▁Whatever	-11.2332
▁campus	-11.2333
xxx	-11.2335
lb	-11.2336
ius	-11.2346
▁damnit	-11.2346
wo	-11.2348
▁robot	-11.2354
▁Quite	-11.2354
▁condition	-11.236
▁Fucking	-11.236
but	-11.2363
▁products	-11.2367
▁puke	-11.2369
▁SH	-11.237
▁Daniel	-11.2371
part	-11.2372
▁Finals	-11.2379
▁wink	-11.238
bell	-11.238
ised	-11.2384
▁BABY	-11.2385
▁cyrus	-11.2385
▁Use	-11.2385
IP	-11.2387
▁jail	-11.239
▁Key	-11.239
▁customers	-11.2395
▁Kobe	-11.2395
SH	-11.2396
▁jumping	-11.2396
▁register	-11.2398
ory	-11.24
▁October	-11.2417
▁furniture	-11.2417
▁sydney	-11.2417
▁quarter	-11.2417
▁warped	-11.2418
▁shipping	-11.2419
ase	-11.2422
▁Frank	-11.2426
ston	-11.2431
▁soda	-11.2434
rid	-11.2438
▁Special	-11.2439
▁specific	-11.2442
ooooooooo	-11.2443
09	-11.2448
▁Cal	-11.2448
▁staring	-11.245
▁Dam	-11.245
▁advantage	-11.2451
▁Either	-11.2451
▁venue	-11.2451
▁SORRY	-11.2452
fer	-11.2459
▁havnt	-11.2461
bury	-11.2462
ata	-11.2462
rus	-11.2464
uf	-11.2467
▁joint	-11.247
▁thumbs	-11.2474
▁WATCH	-11.2483
ele	-11.2483
▁opposite	-11.2484
▁struggling	-11.2484
▁Cyrus	-11.2484
▁cycle	-11.2484
▁example	-11.2489
▁twitterverse	-11.249
END	-11.249
▁oooo	-11.2491
▁aaa	-11.2494
ffy	-11.2494
▁Maths	-11.2498
▁slap	-11.2499
▁DS	-11.25
▁AA	-11.2502
▁recovery	-11.2502
▁Jane	-11.2503
▁Kings	-11.2504
▁gw	-11.2508
ulation	-11.251
▁wished	-11.2512
▁Before	-11.2517
▁bueno	-11.2517
▁qua	-11.2518
▁spray	-11.2518
▁tempted	-11.2519
▁grew	-11.2522
▁discussion	-11.2523
▁thunderstorms	-11.2527
▁abs	-11.2529
▁eatin	-11.2535
mat	-11.2536
▁Fr	-11.2536
cap	-11.2536
▁promote	-11.2547
▁turkey	-11.2551
▁STOP	-11.2551
▁accomplished	-11.2558
▁Until	-11.256
▁ck	-11.2565
▁Wave	-11.2568
▁Hahahaha	-11.2571
vie	-11.2583
ski	-11.2583
▁Scotland	-11.2584
▁Diego	-11.2584
▁answering	-11.2584
▁Somebody	-11.2585
▁parent	-11.2586
▁Cuz	-11.2586
▁zero	-11.2587
▁shoutout	-11.2588
▁gna	-11.2589
sted	-11.259
▁humor	-11.259
▁xxxxx	-11.2591
▁por	-11.2593
ZZ	-11.2594
van	-11.2596
▁NZ	-11.2598
▁besties	-11.26
▁hardest	-11.2601
▁OMFG	-11.2602
▁drum	-11.2606
▁delivered	-11.2607
▁acc	-11.2607
▁Sir	-11.2608
▁Allen	-11.261
sssss	-11.2623
run	-11.2625
ening	-11.2627
▁NJ	-11.2631
▁texted	-11.2631
gy	-11.2633
NK	-11.2633
33	-11.2633
▁HAD	-11.2634
▁Billy	-11.2637
▁exc	-11.2642
ced	-11.2642
▁reports	-11.2647
▁votes	-11.2651
▁Ann	-11.2652
▁hundred	-11.2652
▁Santa	-11.2654
▁lin	-11.2655
▁mp	-11.2658
CO	-11.2659
▁stopping	-11.2663
word	-11.2663
▁engine	-11.2675
▁Ate	-11.2675
▁angels	-11.2678
▁Death	-11.2685
▁Hollywood	-11.2686
▁vomit	-11.2686
▁Museum	-11.2686
GH	-11.2687
▁retarded	-11.2693
din	-11.2703
▁mug	-11.2704
tem	-11.2706
▁concept	-11.271
▁08	-11.2712
bee	-11.2716
▁limited	-11.2716
▁passes	-11.2718
▁Mobile	-11.2719
ela	-11.272
▁soundtrack	-11.272
▁Cam	-11.2721
▁Roger	-11.2721
▁sample	-11.2721
▁election	-11.2724
▁mary	-11.2726
▁effin	-11.2738
▁canada	-11.2743
▁predict	-11.2743
▁devil	-11.2751
▁improve	-11.2752
▁features	-11.2753
▁apologize	-11.2754
▁costs	-11.2754
▁jelly	-11.2755
▁Stephen	-11.2756
▁Cross	-11.2761
▁blogger	-11.2761
▁crawl	-11.2765
▁tidy	-11.2766
▁eight	-11.2766
▁toooo	-11.2768
▁bars	-11.2769
▁chilly	-11.277
▁survived	-11.2778
▁Came	-11.2786
▁shouldnt	-11.2786
▁emailed	-11.2787
▁November	-11.2788
▁plurk	-11.2788
▁MAKE	-11.2789
NY	-11.279
▁replacement	-11.279
▁Christian	-11.2791
▁announcement	-11.2791
▁serve	-11.2791
▁gaga	-11.2793
▁kan	-11.2795
kie	-11.2796
cca	-11.2799
▁Other	-11.28
▁mmmmm	-11.2801
▁Hotel	-11.2802
▁inbox	-11.2804
uuuuu	-11.2812
▁dawn	-11.2814
▁numb	-11.2815
▁eww	-11.2819
sen	-11.2822
▁Secret	-11.2822
▁shattered	-11.2822
▁Weird	-11.2823
▁pattern	-11.2823
▁polish	-11.2823
▁Project	-11.2823
▁RAIN	-11.2823
▁comfortable	-11.2824
▁hardcore	-11.2825
sis	-11.2825
▁Whoa	-11.2827
▁ram	-11.2834
▁cock	-11.2834
llow	-11.2838
▁damage	-11.2845
ral	-11.2847
▁sheets	-11.2848
▁Prince	-11.2853
▁papa	-11.2854
▁thurs	-11.2855
▁slight	-11.2856
▁EXCITED	-11.2857
▁Interesting	-11.2857
▁Norway	-11.2857
▁Aussie	-11.2857
oke	-11.2858
▁rocking	-11.2859
▁Store	-11.2859
▁chin	-11.286
fully	-11.2862
▁der	-11.2862
awa	-11.2863
▁hearts	-11.2865
▁performing	-11.2866
NNA	-11.2866
ike	-11.2869
▁celeb	-11.287
▁Tan	-11.2872
▁celebs	-11.2873
▁advance	-11.2878
oooooooooooooooo	-11.2879
berg	-11.2884
▁upside	-11.2886
▁beast	-11.2889
rang	-11.2891
▁steps	-11.2891
▁emergency	-11.2891
cious	-11.2891
▁Rachel	-11.2891
▁wot	-11.2893
loo	-11.2893
▁salon	-11.2894
sum	-11.2897
mie	-11.2901
fire	-11.2903
▁centre	-11.2905
apped	-11.2911
show	-11.2911
▁yahoo	-11.2912
▁Bru	-11.2913
▁ff	-11.2915
▁Nap	-11.2916
▁vent	-11.2919
▁lied	-11.2923
lea	-11.2924
▁sundays	-11.2926
▁Afternoon	-11.2926
▁childhood	-11.2926
▁entertainment	-11.2927
▁Anything	-11.2927
ead	-11.2928
▁flies	-11.2932
▁refreshing	-11.2945
len	-11.2949
▁skate	-11.295
▁sake	-11.2951
pat	-11.2956
▁nurse	-11.296
▁DAYS	-11.296
▁tournament	-11.2961
▁photoshoot	-11.2961
▁wkend	-11.2962
▁TX	-11.2962
▁balloon	-11.2963
▁asian	-11.2964
DA	-11.2969
▁grace	-11.2969
▁nine	-11.297
▁crib	-11.297
▁2000	-11.297
PA	-11.2974
ryna	-11.2979
▁wreck	-11.298
dale	-11.2981
▁CS	-11.2981
▁settings	-11.2982
▁Ve	-11.2984
lm	-11.2989
▁ashamed	-11.2996
▁MUST	-11.2998
▁taught	-11.3
▁Media	-11.3001
▁Cur	-11.3003
▁Fight	-11.3006
nu	-11.302
▁entertain	-11.3022
▁neat	-11.3022
▁upcoming	-11.3025
▁mosquito	-11.3026
▁Sound	-11.3027
▁webcam	-11.3034
▁discuss	-11.3035
▁boredom	-11.3044
▁Gen	-11.3044
▁counter	-11.3047
ami	-11.3051
▁zombie	-11.3052
▁noes	-11.3054
▁reward	-11.3055
wk	-11.3055
mbo	-11.3056
▁conc	-11.3058
▁nicer	-11.3058
▁loo	-11.3061
▁Math	-11.3065
▁Talent	-11.3066
▁Everybody	-11.3066
▁writer	-11.3068
▁suspended	-11.3069
▁bits	-11.3071
aver	-11.3076
▁prov	-11.3076
▁cheek	-11.3077
BB	-11.308
▁messy	-11.3081
▁Bella	-11.3087
▁bean	-11.3089
▁Save	-11.3094
▁cheaper	-11.31
▁Sy	-11.3101
▁FYI	-11.3101
▁WHERE	-11.3101
▁turtle	-11.3102
▁Denver	-11.3102
▁Amanda	-11.3103
isa	-11.3104
▁Email	-11.3105
▁ze	-11.3106
rap	-11.3109
▁connected	-11.311
▁professional	-11.3111
▁naman	-11.3118
▁Mini	-11.3119
▁Comp	-11.3121
nci	-11.3126
▁listenin	-11.3126
▁girly	-11.3126
▁Brand	-11.3131
Player	-11.3134
▁tomoz	-11.3138
oe	-11.3139
▁Mall	-11.3145
▁severe	-11.3145
▁Myspace	-11.3146
▁SS	-11.3146
▁soap	-11.3149
▁chop	-11.3152
▁slip	-11.3155
▁Hoo	-11.3155
▁urge	-11.3156
▁Sleeping	-11.3156
dent	-11.316
▁sink	-11.3162
▁Sch	-11.3162
▁Hungry	-11.3162
▁attacked	-11.3163
▁crab	-11.3163
▁Martin	-11.3165
▁coll	-11.3168
▁surfing	-11.3171
▁paranoid	-11.3172
▁surround	-11.3173
▁Earth	-11.3176
storm	-11.3177
RN	-11.3179
▁Wings	-11.318
▁golden	-11.318
▁moo	-11.3186
▁relaxed	-11.3186
wee	-11.3188
▁sunburned	-11.3197
▁format	-11.3197
▁Jan	-11.3198
▁jumped	-11.3202
▁teachers	-11.3207
▁naughty	-11.3208
▁Christmas	-11.3208
ui	-11.3211
▁Taco	-11.3213
▁Second	-11.3213
▁Sleepy	-11.3216
▁hott	-11.3218
▁Hates	-11.3218
SL	-11.3219
▁Drink	-11.3221
▁circle	-11.3221
▁lime	-11.3222
▁Kid	-11.3224
▁shoulders	-11.3224
▁Pass	-11.3226
▁whoever	-11.3228
ipped	-11.3228
▁bone	-11.3229
pic	-11.3233
▁chee	-11.3234
▁jaw	-11.3236
▁players	-11.3238
gra	-11.3241
▁TONIGHT	-11.3244
▁describe	-11.3245
▁hai	-11.3247
▁Hor	-11.3248
FA	-11.3252
▁Bear	-11.3255
▁crashes	-11.3259
oodle	-11.3264
▁pond	-11.3266
▁qu	-11.3266
gate	-11.3267
spect	-11.3268
▁Exams	-11.3269
web	-11.3274
▁MAC	-11.3275
▁latte	-11.3275
ates	-11.3276
▁paris	-11.3276
▁Hall	-11.3278
▁accepted	-11.3279
▁gate	-11.328
▁expert	-11.328
▁Visit	-11.3281
cra	-11.3283
▁Christ	-11.3283
bie	-11.3293
▁GUYS	-11.3295
▁101	-11.3299
dom	-11.3299
▁ft	-11.3303
▁among	-11.3304
▁suggestion	-11.3307
issa	-11.3313
▁balcony	-11.3316
▁boston	-11.3317
▁basement	-11.3317
▁Shout	-11.3319
▁neighbours	-11.332
▁ripped	-11.3321
roll	-11.3324
hours	-11.3325
▁nooooo	-11.3327
▁passion	-11.3329
mn	-11.3336
▁resting	-11.334
hood	-11.3342
▁pout	-11.3343
▁ohhhh	-11.3343
▁FI	-11.3347
▁Pick	-11.3348
▁CON	-11.335
asha	-11.335
▁dem	-11.3352
▁Urgh	-11.3352
▁Hang	-11.3352
▁suspect	-11.3353
▁shoulda	-11.3353
DdegD	-11.3357
iana	-11.336
ahh	-11.3362
▁Test	-11.3365
▁risk	-11.3367
ept	-11.3367
nies	-11.337
▁Fran	-11.3377
ars	-11.3378
▁CT	-11.3381
▁physical	-11.3381
▁whale	-11.3382
anda	-11.3384
bat	-11.3384
▁central	-11.3389
nch	-11.3389
▁creating	-11.3389
▁steam	-11.3389
▁While	-11.3392
AND	-11.3393
▁duh	-11.3399
struct	-11.3404
▁grin	-11.3405
▁thus	-11.3405
▁housework	-11.3405
wind	-11.3406
▁Vo	-11.341
▁Bee	-11.3412
▁bestest	-11.3413
ids	-11.3414
udi	-11.3416
ndi	-11.3418
try	-11.3418
lah	-11.342
000	-11.3424
▁AIM	-11.3424
▁Center	-11.3425
▁cavs	-11.3425
▁wierd	-11.3425
▁pra	-11.3426
▁familiar	-11.3427
▁autograph	-11.3427
aaaaay	-11.3427
▁handsome	-11.3429
▁drew	-11.3431
▁EVERY	-11.3433
▁mask	-11.3437
▁Simon	-11.3438
▁Sex	-11.344
▁06	-11.3442
▁scheduled	-11.3442
▁knees	-11.3443
▁Anna	-11.3444
▁LL	-11.3447
▁HS	-11.3447
▁spoiled	-11.3452
vel	-11.3453
▁wats	-11.3453
▁Mean	-11.3454
BO	-11.3454
▁brave	-11.3455
▁42	-11.3455
aff	-11.3458
▁poll	-11.3459
▁chose	-11.346
bly	-11.346
▁inspiring	-11.3462
▁Federer	-11.3462
▁silence	-11.3462
▁cheesecake	-11.3463
▁emily	-11.3464
▁MOM	-11.3468
▁dissapointed	-11.347
▁SOON	-11.3472
▁tease	-11.3474
▁mondays	-11.3474
▁flickr	-11.3476
▁rare	-11.3481
▁dump	-11.3484
▁MIA	-11.3484
▁cou	-11.3487
▁wht	-11.3489
sia	-11.3494
▁acoustic	-11.3499
▁combination	-11.3499
▁recognize	-11.3499
▁neighborhood	-11.3499
▁stops	-11.3499
stream	-11.3499
▁Emily	-11.3499
▁Ty	-11.3499
▁legend	-11.35
own	-11.3501
▁Eh	-11.3508
▁cro	-11.3509
▁woooo	-11.3513
pu	-11.3515
▁presents	-11.3518
▁kicks	-11.3518
cle	-11.3521
▁peter	-11.3522
▁stays	-11.3522
▁jar	-11.3526
▁opt	-11.353
▁Fish	-11.3531
▁Mag	-11.3534
RM	-11.3536
▁craft	-11.3537
dr	-11.3537
pon	-11.3542
▁Mid	-11.3543
itz	-11.3546
HE	-11.355
▁Wat	-11.355
▁Sub	-11.3551
▁Easter	-11.3552
▁wifey	-11.3552
▁iv	-11.3553
▁frog	-11.3554
▁caps	-11.3555
▁leavin	-11.3557
▁Nooo	-11.3559
▁whoo	-11.3561
▁II	-11.3567
ato	-11.3568
▁yayy	-11.3571
▁subscribe	-11.3572
▁marriage	-11.3573
▁walmart	-11.3573
▁piercing	-11.3573
UP	-11.3573
▁gmail	-11.3575
▁filter	-11.3577
▁GP	-11.3579
▁services	-11.3582
▁freeze	-11.3584
▁yucky	-11.3586
▁cheering	-11.3586
▁announced	-11.3588
▁katie	-11.359
▁realy	-11.3592
▁touched	-11.3593
▁TI	-11.3596
▁continues	-11.3603
▁Wall	-11.3607
▁tacos	-11.361
▁Tweeps	-11.361
▁unexpected	-11.361
▁geography	-11.361
▁Official	-11.361
▁Carl	-11.3611
▁passport	-11.3612
wl	-11.3615
bed	-11.3615
▁Jun	-11.3618
▁favorites	-11.3619
ement	-11.3626
▁yayyy	-11.3626
▁punk	-11.3626
uni	-11.3627
▁hahha	-11.3629
▁Gone	-11.363
▁dish	-11.3635
▁WORLD	-11.3647
▁experiment	-11.3647
▁decisions	-11.3648
▁Short	-11.3648
▁Richard	-11.3648
▁stood	-11.3648
▁lick	-11.3648
▁Ron	-11.365
▁sway	-11.365
▁babysit	-11.365
▁Pet	-11.365
RL	-11.3651
▁friendship	-11.3659
▁gigs	-11.3659
▁holla	-11.3662
▁wut	-11.3663
▁mod	-11.3666
▁ARGH	-11.3666
▁Eye	-11.3672
unk	-11.3673
▁Joey	-11.3677
▁spark	-11.3678
▁shy	-11.3681
▁fic	-11.3682
▁mic	-11.3684
▁DVR	-11.3684
▁dangerous	-11.3685
▁ROFL	-11.3685
gue	-11.3685
▁YO	-11.3687
▁Social	-11.3696
▁doggy	-11.3696
card	-11.3697
▁Africa	-11.37
▁SE	-11.37
fe	-11.37
▁talks	-11.3703
cher	-11.3704
▁typo	-11.3709
▁cr	-11.3712
▁hols	-11.3712
▁whose	-11.3713
▁SHA	-11.3714
mrw	-11.3714
▁fails	-11.3721
▁university	-11.3722
▁sketch	-11.3722
▁tragic	-11.3723
▁Mill	-11.3728
YYY	-11.3729
▁TT	-11.3732
una	-11.3735
▁Wild	-11.374
MS	-11.3743
AST	-11.3743
▁Aunt	-11.3746
▁hack	-11.3755
▁gray	-11.3757
▁Dublin	-11.376
▁tumblr	-11.376
▁breeze	-11.376
▁bullshit	-11.376
▁internship	-11.376
ahhh	-11.3761
▁Chicken	-11.3762
tric	-11.3762
▁tommorrow	-11.3762
eve	-11.3765
▁dave	-11.3767
▁cre	-11.3769
▁Safe	-11.3773
ncy	-11.3774
▁cent	-11.3775
ification	-11.3775
ove	-11.3776
▁looo	-11.3777
zone	-11.3779
▁coo	-11.3783
▁Mil	-11.3788
tis	-11.3792
▁Mama	-11.3793
▁Kay	-11.3796
▁letters	-11.3798
▁swallow	-11.3798
▁SNL	-11.3798
shire	-11.3798
▁leak	-11.3799
ists	-11.3799
▁hahaa	-11.3802
▁Princess	-11.3802
▁constantly	-11.3803
▁admin	-11.3804
▁sour	-11.3806
▁Leave	-11.3811
▁minor	-11.3815
▁deserves	-11.3823
oid	-11.3826
ability	-11.3826
▁MC	-11.3827
▁kinds	-11.3832
▁absolute	-11.3832
iro	-11.3833
▁ness	-11.3834
▁MySpace	-11.3836
▁calendar	-11.3836
▁beloved	-11.3836
▁opera	-11.3836
▁MOVIE	-11.3839
▁loading	-11.3839
▁rolls	-11.3842
▁rum	-11.3846
iiiii	-11.3846
UM	-11.3849
itis	-11.385
▁abit	-11.3853
▁destroy	-11.3855
▁refuse	-11.3855
yl	-11.3859
eck	-11.3865
▁Their	-11.3865
ras	-11.3867
pop	-11.3871
▁Jealous	-11.3874
▁california	-11.3874
▁cigarette	-11.3874
▁blown	-11.3876
▁giveaway	-11.3879
▁ironing	-11.3885
▁lee	-11.3893
▁Jones	-11.3897
▁Wooo	-11.3898
▁Del	-11.39
▁views	-11.3901
▁bid	-11.3902
ene	-11.3907
▁ova	-11.3907
bor	-11.3908
▁volleyball	-11.3912
▁THINK	-11.3912
▁Jackson	-11.3915
via	-11.3916
▁JK	-11.3916
▁NDdegD	-11.3919
▁beating	-11.3919
▁karma	-11.392
▁DuN	-11.3925
▁hectic	-11.3925
▁LC	-11.3927
▁Fer	-11.3928
▁willing	-11.3933
ened	-11.3936
dra	-11.3939
▁fallen	-11.3942
▁twist	-11.3942
▁frost	-11.3943
▁150	-11.3943
▁laughs	-11.3948
▁Channel	-11.3951
▁Canadian	-11.3951
▁sleeep	-11.3951
▁brief	-11.3951
▁ginger	-11.3952
▁queue	-11.3953
▁cheat	-11.3955
heart	-11.3956
row	-11.3957
▁Par	-11.3957
bug	-11.3958
▁dar	-11.396
▁Gold	-11.396
▁Fed	-11.3962
aly	-11.3964
▁Fat	-11.3965
▁mai	-11.3966
▁AD	-11.3969
▁articles	-11.3971
▁Ang	-11.3971
▁Hol	-11.3977
▁bby	-11.3979
▁Drive	-11.3988
▁miracle	-11.3989
▁Design	-11.399
▁drug	-11.399
▁Laura	-11.3991
ject	-11.3992
▁Unless	-11.3994
▁lens	-11.3996
▁swap	-11.3997
anne	-11.3997
▁roller	-11.4003
▁Imma	-11.401
▁installing	-11.4015
▁HM	-11.402
gon	-11.4024
inn	-11.4025
▁Tw	-11.4025
▁THEM	-11.4026
uz	-11.4027
▁matters	-11.4027
▁league	-11.4028
▁tornado	-11.4028
▁banned	-11.4028
▁Shoot	-11.4029
▁Rafa	-11.4029
▁quotes	-11.403
got	-11.403
▁Ask	-11.403
▁Java	-11.4031
kay	-11.4031
▁NICE	-11.4031
▁crime	-11.4031
▁moves	-11.4032
▁sentence	-11.4033
▁182	-11.4039
▁Jake	-11.404
acy	-11.4043
▁effects	-11.4044
▁cranky	-11.4046
rad	-11.4046
▁twins	-11.4046
▁ping	-11.4047
nner	-11.4048
▁GL	-11.4056
▁Ohio	-11.4059
▁eng	-11.4061
EP	-11.4062
▁ger	-11.4064
ups	-11.4065
ull	-11.4066
▁disaster	-11.4067
▁sneeze	-11.4067
▁average	-11.4067
▁Remind	-11.4067
▁studies	-11.4069
fect	-11.4072
▁scr	-11.4073
▁SONG	-11.4075
▁worrying	-11.4075
▁halfway	-11.4078
▁Awe	-11.4078
dog	-11.4087
▁toys	-11.409
▁amanda	-11.409
EC	-11.4092
▁Sand	-11.4096
▁particular	-11.4098
moz	-11.4099
▁pas	-11.4099
▁thick	-11.41
ppp	-11.4101
▁Vancouver	-11.4106
▁injured	-11.4106
▁Jacob	-11.4106
▁worship	-11.4106
▁vanilla	-11.4106
▁Died	-11.411
haa	-11.4111
▁2008	-11.4112
▁pirate	-11.4112
▁motivated	-11.4116
▁Cri	-11.412
▁ken	-11.4123
▁utter	-11.4123
▁pushing	-11.4131
▁Nat	-11.4133
▁800	-11.4134
asa	-11.4135
agged	-11.4136
▁Pra	-11.4136
▁MP	-11.4138
udge	-11.414
tha	-11.4141
▁yikes	-11.4145
▁allergy	-11.4145
▁bonus	-11.4148
▁meeee	-11.4149
▁Wedding	-11.4154
ech	-11.4156
EY	-11.4161
vent	-11.4161
▁pissing	-11.4162
▁figur	-11.4164
rf	-11.4166
pos	-11.4168
▁Tweeting	-11.4169
place	-11.4173
▁Rainy	-11.4175
▁FR	-11.4176
nia	-11.4176
bbie	-11.4178
▁equal	-11.4182
▁channels	-11.4182
▁psych	-11.4183
▁basic	-11.4184
▁LOOK	-11.4185
▁ttyl	-11.4185
▁wordpress	-11.4187
▁management	-11.4187
▁poem	-11.4188
▁bride	-11.4191
▁covers	-11.4204
▁jog	-11.4205
25	-11.4214
▁Heard	-11.4214
▁nat	-11.4215
▁dudes	-11.4218
▁vibes	-11.4219
▁ooooh	-11.4221
▁romantic	-11.4224
walk	-11.4224
▁hahahahaha	-11.4227
▁untill	-11.4229
▁lad	-11.4233
▁lion	-11.4234
hahahaha	-11.4236
▁twat	-11.4239
▁developer	-11.4245
▁trail	-11.4246
▁lamb	-11.4247
▁kn	-11.4251
▁34	-11.4254
▁smiley	-11.4256
▁extreme	-11.4256
▁drops	-11.4258
▁core	-11.4258
▁Temp	-11.426
tom	-11.4263
▁Wake	-11.4264
▁Computer	-11.4264
▁Doubt	-11.4264
▁transport	-11.4264
▁countdown	-11.4265
▁Kel	-11.4265
▁popped	-11.4268
▁belt	-11.4274
▁awesomeness	-11.4275
▁Stone	-11.4276
▁looove	-11.4277
▁vaca	-11.4283
ces	-11.4283
PL	-11.4284
▁comm	-11.4287
▁600	-11.4288
▁muffin	-11.4291
▁Op	-11.4293
▁pork	-11.4295
aft	-11.4296
lig	-11.43
▁pops	-11.4301
▁Thurs	-11.4301
▁levels	-11.4301
▁TIRED	-11.4304
▁painted	-11.4304
▁vocal	-11.4304
▁development	-11.4305
▁Hurt	-11.4305
▁shaking	-11.4306
aj	-11.4307
▁Irish	-11.4307
body	-11.4308
▁luckily	-11.4308
▁Order	-11.4309
▁interviews	-11.4313
▁Wonderful	-11.4313
▁07	-11.4317
tics	-11.4319
ili	-11.4326
mond	-11.4329
▁WELL	-11.4329
▁reader	-11.433
late	-11.4333
where	-11.4334
▁pains	-11.4336
WN	-11.4337
▁bikini	-11.4344
rrrrrr	-11.4344
▁funniest	-11.4344
▁suprise	-11.4344
▁printer	-11.4345
▁direction	-11.4348
▁Relaxing	-11.4354
chu	-11.4355
ille	-11.4359
▁Market	-11.4359
▁Victoria	-11.4365
▁Pete	-11.4368
▁gre	-11.4368
deg	-11.4369
ssy	-11.437
▁explode	-11.437
▁horses	-11.437
▁rings	-11.4371
▁stalking	-11.4377
ggin	-11.4382
▁Greek	-11.4384
▁Gym	-11.4385
▁mitchel	-11.4386
▁YUM	-11.4386
▁Disneyland	-11.4386
▁Opera	-11.439
▁Pain	-11.439
▁yumm	-11.4392
▁sunset	-11.4393
EW	-11.4394
▁Fla	-11.4397
ounce	-11.4399
▁muscles	-11.44
▁Sony	-11.44
▁chap	-11.4401
▁spain	-11.4402
▁dip	-11.4408
▁plugin	-11.441
hn	-11.441
ctor	-11.4411
uke	-11.4412
▁kittens	-11.4413
▁Sara	-11.4413
▁goo	-11.4414
▁amazingly	-11.4418
vert	-11.442
▁ahhhhh	-11.4422
▁XOXO	-11.4422
MY	-11.4424
▁firefox	-11.4424
▁impressive	-11.4424
▁reset	-11.4425
▁cord	-11.4428
▁Marley	-11.4428
▁Quick	-11.4428
▁Skype	-11.443
▁amazed	-11.4433
▁38	-11.4443
▁Pay	-11.4443
ght	-11.4445
tte	-11.4445
▁Bre	-11.4446
▁Raining	-11.4446
aaaaaaa	-11.4447
ien	-11.445
know	-11.4453
▁fold	-11.4453
gre	-11.4455
RY	-11.4456
▁wth	-11.4458
▁bones	-11.4461
▁ignored	-11.4462
▁LAKERS	-11.4465
▁doors	-11.4465
▁iamso	-11.4465
▁racing	-11.4466
▁evry	-11.4466
▁charity	-11.4467
▁Boring	-11.4468
▁Ana	-11.4468
▁grounded	-11.447
▁Rio	-11.4471
ature	-11.4474
▁Wasn	-11.4479
▁concerned	-11.4481
▁overall	-11.4486
▁breathing	-11.4487
▁nest	-11.4487
▁orders	-11.449
▁HAS	-11.4495
▁None	-11.4499
wwwww	-11.45
shot	-11.4501
annoyed	-11.4505
▁XP	-11.4505
▁PEOPLE	-11.4505
▁sponsor	-11.4505
▁applied	-11.4505
▁amusing	-11.4506
▁disease	-11.4506
▁resume	-11.4508
▁River	-11.4509
▁PI	-11.4509
▁shave	-11.4511
▁bounce	-11.4511
▁Brit	-11.4513
60	-11.4513
▁Steph	-11.4515
▁brick	-11.4519
▁supporting	-11.4528
bre	-11.453
hia	-11.453
▁Room	-11.4531
▁Cos	-11.4532
hin	-11.4535
▁Fell	-11.4535
▁tomoro	-11.4539
▁Wood	-11.454
▁tweetie	-11.4542
▁sinus	-11.4543
▁booth	-11.4544
▁Pens	-11.4545
▁upstairs	-11.4546
▁Sweden	-11.4546
▁grandmother	-11.4546
▁laws	-11.4547
▁dancer	-11.4547
▁joys	-11.4549
▁fry	-11.455
▁loan	-11.455
▁puts	-11.455
▁Grandma	-11.4551
▁sets	-11.4552
▁attending	-11.4552
▁supper	-11.4552
▁footy	-11.4553
▁Chill	-11.4555
▁yee	-11.4555
hole	-11.4557
ado	-11.4558
zzzzzz	-11.4561
▁Maria	-11.4562
▁convinced	-11.4564
▁Thinks	-11.4577
kit	-11.4578
▁las	-11.4579
aka	-11.458
pie	-11.4583
▁Megan	-11.4583
▁FRIDAY	-11.4587
▁economy	-11.4587
▁knowledge	-11.4587
▁withdrawal	-11.4587
▁Yikes	-11.4587
▁VOTE	-11.4587
▁Science	-11.4587
▁Hooray	-11.4587
▁notebook	-11.4589
▁Coast	-11.4589
▁Johnny	-11.459
▁alert	-11.4593
▁Liz	-11.4599
case	-11.4604
▁Fam	-11.4606
▁pur	-11.4606
bin	-11.4607
▁programme	-11.4607
▁fil	-11.4608
▁mow	-11.4611
▁commercials	-11.4619
▁visited	-11.462
▁tsk	-11.4624
▁ultimate	-11.4628
▁selena	-11.4628
▁Dev	-11.4628
▁patience	-11.4628
▁costume	-11.4628
▁desert	-11.4629
arious	-11.463
▁sharp	-11.463
▁Place	-11.463
▁path	-11.4631
▁surprisingly	-11.4632
▁hoe	-11.4632
▁belive	-11.4636
phe	-11.4639
week	-11.4641
wing	-11.4644
▁attitude	-11.4649
▁haters	-11.4649
cus	-11.465
ij	-11.4655
▁blowing	-11.4656
▁Whoo	-11.4657
▁DH	-11.4659
▁hire	-11.4662
▁taxi	-11.4663
▁pens	-11.4665
▁GIRL	-11.4665
▁europe	-11.4666
▁srsly	-11.467
▁snake	-11.4671
▁servers	-11.4671
▁SUN	-11.4671
▁gaming	-11.4671
DO	-11.4672
▁uncomfortable	-11.4672
DAY	-11.4672
▁paperwork	-11.4673
▁font	-11.4677
urs	-11.4677
▁rarely	-11.4678
eeeeeeeeeee	-11.4683
▁vegan	-11.4684
tim	-11.4685
▁legit	-11.469
▁poke	-11.4692
ASS	-11.4692
▁Pol	-11.4694
IDE	-11.4694
▁Checking	-11.4695
▁streaming	-11.4696
▁JO	-11.4697
▁url	-11.47
▁yell	-11.4703
▁Mario	-11.4703
▁addict	-11.4707
▁rant	-11.4708
▁Six	-11.4708
▁burgers	-11.4709
igo	-11.471
▁Mexican	-11.4711
▁EVERYTHING	-11.4711
▁Nashville	-11.4711
▁Fantastic	-11.4711
▁Thomas	-11.4711
▁Nicole	-11.4711
▁relief	-11.4711
▁Patrick	-11.4711
▁FO	-11.4711
▁Han	-11.4712
▁goooood	-11.4713
▁FUCKING	-11.4715
▁Qua	-11.4716
▁graphic	-11.4717
▁Money	-11.4717
▁susan	-11.4718
break	-11.4718
▁olive	-11.4718
▁Hero	-11.4719
▁Hugh	-11.4721
▁bore	-11.4727
▁closest	-11.4728
aki	-11.4728
aya	-11.4733
▁handy	-11.4734
▁Ughhh	-11.4739
▁login	-11.4745
▁Grad	-11.4746
lli	-11.4748
▁dim	-11.4751
▁bitter	-11.4751
▁ABOUT	-11.4753
▁Kyle	-11.4755
▁demons	-11.4756
▁fella	-11.476
▁Lou	-11.4761
▁edition	-11.4761
▁wal	-11.4761
OD	-11.4774
▁Sore	-11.4776
ANG	-11.4776
▁SAY	-11.4779
▁skies	-11.478
▁Net	-11.4781
▁affect	-11.4782
▁Tre	-11.4782
oz	-11.4783
▁obvious	-11.4787
▁dub	-11.4789
▁CL	-11.4791
▁junior	-11.4795
▁squirrel	-11.4795
▁broadcast	-11.4795
▁Kristen	-11.4795
▁miami	-11.4796
▁et	-11.4796
bird	-11.48
▁Vol	-11.4803
▁shell	-11.4803
▁restart	-11.4803
▁thrown	-11.4804
▁scan	-11.4806
▁Face	-11.4808
ico	-11.4808
bies	-11.4808
▁Mass	-11.4809
▁pointless	-11.4809
▁Fix	-11.481
▁COM	-11.4812
▁col	-11.4827
ttle	-11.4828
▁label	-11.4828
ister	-11.4829
▁gut	-11.4829
▁instant	-11.4829
▁64	-11.4829
cup	-11.4829
▁offered	-11.483
▁nighter	-11.4832
▁wks	-11.4833
▁Detroit	-11.4837
▁society	-11.4837
▁Michelle	-11.4837
▁draft	-11.4837
▁dose	-11.4838
▁porch	-11.4839
▁Bird	-11.484
eezy	-11.4841
▁jen	-11.4841
▁dial	-11.4842
▁cramp	-11.4848
▁VIP	-11.4851
▁ABC	-11.4851
▁Ross	-11.4851
▁Son	-11.4853
▁icky	-11.4856
km	-11.4857
▁marks	-11.4857
▁Wah	-11.4859
▁indian	-11.4864
kn	-11.4867
▁beers	-11.487
▁CC	-11.4875
xt	-11.4876
▁Concert	-11.4879
▁Flickr	-11.4879
▁Gorgeous	-11.4879
▁Selena	-11.4879
▁elbow	-11.4879
▁provide	-11.4879
▁default	-11.4879
▁WHEN	-11.4879
▁sweets	-11.488
▁Point	-11.488
▁garlic	-11.488
▁Vista	-11.488
ggie	-11.4883
ESS	-11.4885
▁Zoo	-11.4886
▁tru	-11.4887
▁yearbook	-11.4892
▁mcdonalds	-11.4892
▁Master	-11.4893
▁army	-11.4894
▁vol	-11.4897
▁saddest	-11.4898
▁wound	-11.4899
▁setup	-11.49
▁confirm	-11.49
▁bing	-11.4906
▁hike	-11.4909
▁USB	-11.491
▁Sho	-11.4912
▁networking	-11.4914
▁props	-11.4914
▁lobster	-11.4921
▁necessary	-11.4921
▁EX	-11.4922
▁Swine	-11.4923
▁Cafe	-11.4924
▁Homework	-11.4925
▁Bla	-11.4926
▁employee	-11.4927
▁pets	-11.4927
▁streets	-11.4927
▁Bel	-11.4928
▁gon	-11.493
▁pushed	-11.4933
▁trial	-11.4934
gghh	-11.4939
▁trainer	-11.4942
pal	-11.4945
▁ability	-11.4945
▁albums	-11.4954
▁NIN	-11.4956
EA	-11.4957
ctic	-11.4959
▁Guitar	-11.4964
▁Nokia	-11.4964
▁Business	-11.4964
▁tutorial	-11.4964
▁stunning	-11.4964
view	-11.4965
▁SOO	-11.4965
▁phew	-11.4967
▁prop	-11.4968
▁beard	-11.4973
tive	-11.4973
atch	-11.4976
▁cage	-11.4976
▁gardening	-11.4982
▁plea	-11.4982
▁WO	-11.4983
▁sack	-11.4984
▁VI	-11.4984
▁Away	-11.4986
▁telly	-11.4988
▁signs	-11.5
▁Str	-11.5001
▁nga	-11.5003
▁Gre	-11.5003
▁Phoenix	-11.5006
▁bonfire	-11.5007
▁cheesy	-11.5007
▁twitterland	-11.5007
▁disappointment	-11.5008
▁mill	-11.5008
▁Dawn	-11.5011
▁Fathers	-11.5012
▁Ooo	-11.5013
▁heyyy	-11.5019
▁kool	-11.5019
▁desperately	-11.502
▁recommendations	-11.5022
▁mann	-11.5022
▁Fred	-11.5025
▁freaked	-11.5026
morro	-11.5037
▁drums	-11.5044
▁Mis	-11.5048
▁eric	-11.5049
▁Amsterdam	-11.5049
▁spoon	-11.5051
▁Noooo	-11.5054
▁spit	-11.5055
18	-11.5056
▁drinkin	-11.506
▁frank	-11.5063
lish	-11.5064
▁websites	-11.5066
▁stud	-11.5069
▁booze	-11.5069
▁condo	-11.5072
▁flags	-11.5072
▁SOOOO	-11.5075
▁pimp	-11.5076
rant	-11.5076
▁cba	-11.5077
▁roomie	-11.5083
▁Lot	-11.5085
▁NI	-11.5085
▁Greg	-11.5086
▁cy	-11.5092
▁Gossip	-11.5092
▁increase	-11.5092
▁Travel	-11.5093
▁Trans	-11.5093
▁Yu	-11.5093
▁Meet	-11.5094
▁Ellen	-11.5095
▁gifts	-11.5096
▁Space	-11.5096
▁production	-11.5097
TY	-11.5098
▁Iron	-11.51
▁Jamie	-11.5102
▁04	-11.5105
▁reminding	-11.5106
▁Epic	-11.511
▁melt	-11.5111
▁DdegN	-11.5114
▁terms	-11.5114
▁ribs	-11.5115
▁05	-11.5116
▁publish	-11.5117
▁Find	-11.5117
lands	-11.5119
▁Box	-11.512
▁prince	-11.5122
▁Cab	-11.5122
inal	-11.5124
▁Trip	-11.5127
lis	-11.5127
▁fran	-11.5127
▁TWO	-11.5128
▁unfortunate	-11.5128
fish	-11.5131
▁stats	-11.5131
▁Ghost	-11.5137
▁plot	-11.5143
▁Thai	-11.5143
▁CUTE	-11.5145
▁leftover	-11.5148
put	-11.5149
▁Him	-11.5156
INE	-11.516
urb	-11.5161
▁Meh	-11.5162
▁smack	-11.5165
▁sweaty	-11.5168
mal	-11.5174
wt	-11.5175
▁fairly	-11.5175
▁CRAZY	-11.5179
▁burrito	-11.5179
▁ceremony	-11.5179
▁sunbathing	-11.5179
▁coworker	-11.5179
▁Random	-11.5179
▁Shop	-11.5179
▁immediately	-11.518
▁silent	-11.5181
▁italian	-11.5181
▁sorting	-11.5182
▁tweetup	-11.5183
▁Didnt	-11.5187
▁Beat	-11.5188
▁Emma	-11.5188
AK	-11.5189
▁agent	-11.519
▁crushed	-11.5191
▁tues	-11.5191
BE	-11.5192
▁spilled	-11.5194
▁generally	-11.5196
▁rev	-11.52
▁Clean	-11.52
▁TM	-11.5201
▁fits	-11.5204
▁MU	-11.5204
▁Lame	-11.5207
OP	-11.5209
yyyyyy	-11.5217
▁diss	-11.5219
UGH	-11.5221
▁SHOULD	-11.5223
▁campaign	-11.5223
▁separate	-11.5223
▁therefore	-11.5223
▁Target	-11.5223
▁Close	-11.5224
▁spinning	-11.5224
live	-11.5224
▁Honey	-11.5224
ssed	-11.5226
▁carrot	-11.5226
▁Oooo	-11.5228
fff	-11.5233
LT	-11.5234
▁switched	-11.5236
▁twitterberry	-11.5237
▁photographer	-11.5237
▁relieve	-11.5241
▁Ew	-11.5243
▁announce	-11.5245
▁Wind	-11.5247
▁Praying	-11.5259
ello	-11.5259
▁paste	-11.5264
▁international	-11.5267
▁karaoke	-11.5267
▁tshirt	-11.5267
▁lib	-11.5267
▁OUCH	-11.5267
▁nevermind	-11.5267
▁Royal	-11.5267
▁Shut	-11.5268
▁walls	-11.527
▁shifts	-11.5271
▁Flash	-11.5271
▁chart	-11.5274
▁hoped	-11.5275
test	-11.5276
▁sessions	-11.5278
▁thrilled	-11.5278
▁dirt	-11.5279
▁burst	-11.528
▁dryer	-11.5281
▁minds	-11.5281
▁AZ	-11.5283
▁bruised	-11.529
FO	-11.5292
▁calories	-11.5293
▁weekly	-11.5296
pre	-11.5298
▁drunken	-11.5301
▁hence	-11.5307
▁newest	-11.5309
▁speakers	-11.531
UL	-11.531
▁jesus	-11.5311
▁BETTER	-11.5311
▁dorm	-11.5312
▁uniform	-11.5312
▁SUCK	-11.5314
▁65	-11.5318
lap	-11.5319
ddddd	-11.532
▁wif	-11.5322
sses	-11.5322
▁Beer	-11.5324
▁Donnie	-11.5325
hol	-11.5325
▁Dia	-11.5329
▁AHHH	-11.5334
▁Yuck	-11.5334
▁cA	-11.5335
▁stil	-11.534
▁opp	-11.5343
▁trips	-11.5343
▁stressing	-11.5349
▁artists	-11.5353
burn	-11.5353
▁Lab	-11.5354
▁actress	-11.5355
▁promotion	-11.5356
▁Sushi	-11.5356
▁humidity	-11.5356
rio	-11.5357
▁THEN	-11.5358
▁unique	-11.5359
tag	-11.536
▁hunny	-11.5361
▁rides	-11.5363
▁handed	-11.5364
▁graphics	-11.5365
▁thousand	-11.5368
▁hail	-11.5369
▁mart	-11.5371
▁ec	-11.5378
▁correctly	-11.5378
bber	-11.5384
▁ewww	-11.5387
burg	-11.5393
▁cul	-11.5395
▁sheep	-11.5397
▁document	-11.5397
▁bliss	-11.5398
▁Eminem	-11.5399
▁audience	-11.5399
▁november	-11.5399
▁Double	-11.5399
▁motorcycle	-11.54
▁cone	-11.5402
times	-11.5405
▁intro	-11.541
▁Gaga	-11.5412
▁swag	-11.5415
▁thai	-11.5418
▁woods	-11.5425
▁Tech	-11.5427
tta	-11.5428
▁torrent	-11.5429
▁qo	-11.5431
wy	-11.5431
▁beside	-11.5433
▁Tho	-11.5436
sky	-11.5439
▁photograph	-11.5439
▁Ant	-11.544
▁hoodie	-11.5442
wit	-11.5443
▁feeding	-11.5444
▁gimme	-11.5444
▁global	-11.5444
▁Ocean	-11.5444
▁44	-11.5445
▁Fresh	-11.5445
nin	-11.5448
▁curly	-11.5448
▁thnk	-11.5452
▁smaller	-11.5453
▁folk	-11.5456
▁BL	-11.5459
▁37	-11.5459
▁sighs	-11.546
▁Twitt	-11.546
▁glow	-11.5461
rina	-11.5466
▁oc	-11.5467
▁hotter	-11.5468
97	-11.547
oul	-11.5471
▁cracking	-11.5471
aaat	-11.5473
▁involve	-11.5475
eet	-11.5477
▁grilled	-11.548
▁bac	-11.5483
▁waa	-11.5486
▁hype	-11.5488
▁appropriate	-11.5489
▁refresh	-11.549
▁postponed	-11.5493
▁Bday	-11.5493
▁HUGS	-11.5497
▁required	-11.5497
▁Train	-11.5498
▁drool	-11.5499
dor	-11.5499
▁Cheer	-11.5499
▁pint	-11.5501
▁Dreams	-11.5503
▁uhh	-11.5504
ammy	-11.551
▁booooo	-11.5513
▁39	-11.5515
▁bub	-11.5517
▁AHH	-11.5517
▁Ob	-11.5521
▁gained	-11.5522
▁enjoyable	-11.5524
▁magical	-11.5524
▁tools	-11.5525
▁tied	-11.5526
▁entirely	-11.5527
▁Van	-11.5528
▁Sean	-11.553
▁acct	-11.5534
ega	-11.5534
▁Safari	-11.5534
▁hiccups	-11.5534
▁BNP	-11.5534
▁injury	-11.5534
▁logged	-11.5536
PR	-11.5536
▁exhausting	-11.5539
▁ASS	-11.5539
▁treatment	-11.5543
▁Inter	-11.5545
nee	-11.5549
▁highlight	-11.5556
ict	-11.5559
las	-11.5564
nnnnn	-11.5567
▁seniors	-11.557
▁Mmmmm	-11.5572
▁clicked	-11.5573
▁bgt	-11.5574
▁Service	-11.5579
▁chelsea	-11.5579
▁Major	-11.5579
▁Jessica	-11.558
▁spicy	-11.558
Ddeg	-11.558
▁victim	-11.5581
▁EPIC	-11.5583
▁border	-11.5586
▁Hay	-11.5588
ads	-11.5589
▁horny	-11.559
▁mock	-11.5592
aba	-11.5593
▁Cake	-11.5596
▁mistakes	-11.56
▁conversations	-11.5603
▁slack	-11.5605
UCK	-11.5609
uge	-11.5615
▁Cleveland	-11.5625
▁recession	-11.5625
▁terminator	-11.5625
▁wolverine	-11.5625
▁harsh	-11.563
▁Button	-11.5633
▁API	-11.5634
▁steph	-11.5634
▁Suck	-11.5637
▁informed	-11.5637
▁Bal	-11.5639
▁groups	-11.5641
▁overcast	-11.5646
▁Lily	-11.5646
▁bros	-11.5648
coming	-11.5649
mail	-11.5657
▁factory	-11.5658
▁Ali	-11.5662
AGE	-11.5664
TB	-11.5667
▁Charlotte	-11.567
▁september	-11.567
▁omfg	-11.567
▁championship	-11.5671
▁translate	-11.5671
ior	-11.5671
▁protest	-11.5671
ode	-11.5672
kins	-11.5674
▁coding	-11.5674
arm	-11.5676
▁abuse	-11.568
RC	-11.568
▁nerves	-11.5682
WA	-11.5684
▁muffins	-11.5685
▁Cro	-11.5685
▁sticks	-11.5687
▁destroyed	-11.5693
▁batch	-11.5694
aking	-11.57
▁kelly	-11.5712
pol	-11.5713
▁hottie	-11.5714
▁clo	-11.5714
▁Apprentice	-11.5716
▁Matthew	-11.5716
▁knackered	-11.5716
▁Studio	-11.5716
▁orlando	-11.5718
▁Wife	-11.5718
▁gro	-11.5719
sel	-11.5719
▁towel	-11.5719
HHHHH	-11.5721
▁donate	-11.5722
▁tiger	-11.5722
sters	-11.5723
▁urself	-11.5724
▁particularly	-11.5725
▁Kick	-11.573
▁youuuu	-11.5732
bot	-11.5734
cuz	-11.5735
▁intern	-11.5735
▁refer	-11.5738
▁Race	-11.5739
stick	-11.574
cin	-11.5741
▁ego	-11.5741
ano	-11.5742
▁ruining	-11.5747
dio	-11.5747
▁sem	-11.5757
▁wel	-11.576
uri	-11.576
▁alternative	-11.5762
▁argument	-11.5762
▁followfriday	-11.5762
▁Bummed	-11.5762
▁coupon	-11.5762
▁hollywood	-11.5763
wick	-11.5765
YY	-11.5765
▁hammer	-11.5767
▁cuppa	-11.5767
▁potatoes	-11.577
▁unf	-11.5771
▁Holly	-11.5774
▁smashed	-11.5781
▁LE	-11.5785
zzle	-11.5785
▁wire	-11.5786
▁bottles	-11.5787
▁Card	-11.5788
▁sara	-11.5791
70	-11.5798
▁shaun	-11.58
▁aaaa	-11.58
▁Lovin	-11.5801
pit	-11.5804
bal	-11.5805
▁Uncle	-11.5809
▁LUCK	-11.5809
oooooooooooo	-11.581
yyyyyyy	-11.5812
▁huhu	-11.5813
▁disk	-11.5814
▁chili	-11.5815
▁distraction	-11.5816
▁worthy	-11.5817
ann	-11.5817
ghhh	-11.5819
▁sticky	-11.5821
▁humm	-11.5823
▁devo	-11.5826
▁counts	-11.5826
ization	-11.5826
vic	-11.5828
▁lah	-11.5829
▁keen	-11.5833
gal	-11.5835
▁replay	-11.5836
▁smash	-11.5837
andy	-11.5837
▁Name	-11.5839
rock	-11.5839
▁Geo	-11.5841
▁Exp	-11.5842
▁Cra	-11.5844
UG	-11.5844
AVE	-11.5844
▁Korea	-11.5845
hahha	-11.5845
▁mwah	-11.5846
▁Dean	-11.5848
▁LET	-11.585
▁WEEK	-11.5851
▁Exactly	-11.5855
▁Glasgow	-11.5855
▁lemonade	-11.5856
▁desire	-11.5856
▁Beth	-11.5857
▁Ass	-11.5857
▁former	-11.5858
▁Trust	-11.586
▁lik	-11.5861
▁SICK	-11.5869
AAAA	-11.5873
miss	-11.5874
▁Med	-11.5876
▁Chilling	-11.5878
▁Boom	-11.5879
▁nan	-11.5879
▁concern	-11.5883
▁addicting	-11.5883
▁Oz	-11.5884
▁kings	-11.5886
▁spots	-11.5888
ATION	-11.5892
▁boobs	-11.5894
friend	-11.5899
▁Georgia	-11.5902
▁phrase	-11.5902
▁Aaron	-11.5902
▁Washington	-11.5902
▁depression	-11.5903
▁Planning	-11.5903
▁HARD	-11.5903
now	-11.5904
▁showered	-11.5904
▁alien	-11.5907
hir	-11.5908
▁Stand	-11.5909
▁Cre	-11.5911
▁leader	-11.5911
GE	-11.5911
▁Classic	-11.5914
▁Online	-11.5921
▁donut	-11.5923
▁Hy	-11.5923
▁Iphone	-11.5924
▁aaah	-11.5926
mos	-11.5927
▁cel	-11.5927
rog	-11.593
zzzz	-11.5932
▁bor	-11.5934
▁Five	-11.5937
ION	-11.5941
xi	-11.5941
eria	-11.5945
▁ughhhh	-11.5947
▁invitation	-11.5949
▁scroll	-11.5949
▁newspaper	-11.595
▁homesick	-11.595
▁Cheese	-11.595
▁stranger	-11.5951
▁forums	-11.5956
▁EM	-11.5957
▁paw	-11.5957
▁Block	-11.5959
▁Bow	-11.5959
park	-11.5962
▁eyed	-11.5963
▁Alas	-11.5964
▁Four	-11.5964
ret	-11.5964
▁Ten	-11.5965
▁Learning	-11.5968
▁rash	-11.5972
▁happend	-11.598
▁lies	-11.5982
gress	-11.5982
▁chances	-11.5983
▁MD	-11.5983
pelled	-11.5989
▁mexico	-11.5996
▁Portland	-11.5997
▁United	-11.5998
▁emma	-11.5999
▁Snow	-11.6002
▁biscuits	-11.6006
olo	-11.6007
▁gue	-11.6009
▁WON	-11.6014
hal	-11.6019
▁FM	-11.603
▁settled	-11.6031
▁shared	-11.6033
ards	-11.6035
▁SI	-11.6039
ARD	-11.604
▁climbing	-11.604
▁exception	-11.6041
▁Carradine	-11.6043
▁Ubuntu	-11.6043
▁extension	-11.6043
▁external	-11.6043
▁Berlin	-11.6043
source	-11.6044
▁caramel	-11.6044
▁Step	-11.6044
▁lightening	-11.6045
ination	-11.6045
▁Celebrat	-11.6046
▁unlock	-11.6046
▁Dem	-11.605
▁CALL	-11.6052
ida	-11.6052
▁DIDN	-11.6058
▁Scary	-11.6059
▁49	-11.606
▁TELL	-11.606
▁thankfully	-11.6063
▁Kar	-11.6065
▁yelled	-11.6065
▁NND	-11.6066
▁yelling	-11.6072
rian	-11.6075
▁owl	-11.6078
▁veggie	-11.6081
▁fired	-11.6085
▁EP	-11.6085
duct	-11.6087
▁AI	-11.6087
▁pod	-11.6089
▁jordan	-11.6091
▁ringtone	-11.6091
▁Luckily	-11.6091
▁HOPE	-11.6091
▁Fingers	-11.6092
RU	-11.6094
▁guard	-11.6098
▁Bleh	-11.61
astic	-11.6101
▁LJ	-11.6105
▁Jenn	-11.6107
▁scratched	-11.6107
▁Xxx	-11.6109
▁pho	-11.6112
▁Las	-11.6116
▁pole	-11.6117
eng	-11.6119
▁Tam	-11.6123
▁brit	-11.6123
IV	-11.6125
▁BED	-11.6133
▁lyk	-11.6134
gb	-11.6135
bil	-11.6135
▁PRO	-11.6137
▁disagree	-11.6139
▁Linux	-11.6139
▁japanese	-11.6139
▁adjust	-11.6139
isha	-11.6139
▁Small	-11.6139
▁jimmy	-11.6139
▁Australian	-11.6142
▁waffles	-11.6142
▁Gay	-11.6142
▁funky	-11.6143
▁manchester	-11.6144
▁relate	-11.6147
▁buttons	-11.6148
▁peach	-11.6149
▁laura	-11.6154
▁bears	-11.6156
▁poisoning	-11.6162
GO	-11.6162
▁NOOOO	-11.6163
▁Sim	-11.6167
rough	-11.6167
▁yessss	-11.617
LS	-11.6178
cation	-11.6179
▁lighting	-11.6179
▁jan	-11.6182
cht	-11.6183
▁hiya	-11.6184
IVE	-11.6185
▁Laptop	-11.6187
▁Sox	-11.6188
▁prison	-11.6189
▁Gri	-11.6189
▁charged	-11.6189
▁Grace	-11.6191
▁restore	-11.6193
▁gem	-11.6194
▁extended	-11.6198
▁Ye	-11.6198
pan	-11.6201
pool	-11.6201
▁docs	-11.6203
▁chan	-11.6206
rab	-11.6207
▁Mart	-11.6208
ark	-11.6209
▁patio	-11.621
▁cops	-11.6212
▁Grrrr	-11.6215
▁madness	-11.6216
▁guests	-11.6217
▁dep	-11.6229
OOOOO	-11.6229
▁sings	-11.623
▁Wimbledon	-11.6235
▁anxiety	-11.6235
▁apprentice	-11.6235
▁dallas	-11.6235
▁culture	-11.6235
▁kitties	-11.6236
▁Anybody	-11.6236
▁considered	-11.6237
▁douche	-11.6238
oca	-11.6239
▁Bridge	-11.6239
▁Less	-11.6241
▁technically	-11.6242
▁christ	-11.6246
▁Station	-11.6247
▁Move	-11.6249
cco	-11.6251
uda	-11.6253
▁conan	-11.6253
▁virgin	-11.6255
▁Strange	-11.6258
▁prof	-11.6258
▁Hm	-11.626
▁CHA	-11.6261
▁blister	-11.6261
▁blocks	-11.6262
▁champ	-11.6263
▁teams	-11.6263
▁recommended	-11.6265
▁pound	-11.6267
▁ker	-11.6267
▁Till	-11.6269
▁val	-11.627
▁directly	-11.6272
▁Comm	-11.6276
AA	-11.628
code	-11.6281
▁Rick	-11.6281
▁sweetest	-11.6283
▁fck	-11.6283
▁Argentina	-11.6284
▁education	-11.6284
▁pineapple	-11.6284
▁politics	-11.6284
▁Ladies	-11.6285
▁peek	-11.6286
DdegN	-11.6287
▁Golden	-11.629
▁Rod	-11.629
▁cave	-11.6292
▁philly	-11.6297
▁loaded	-11.6304
▁Blu	-11.6305
▁advert	-11.6309
▁listed	-11.631
▁Whoop	-11.6314
▁HOO	-11.6315
▁mainly	-11.6317
▁anime	-11.6319
▁hihi	-11.632
▁Booo	-11.632
ahahaha	-11.6322
eeeeeeeee	-11.6322
SI	-11.6323
▁float	-11.6326
▁march	-11.6328
▁whip	-11.633
▁xoxox	-11.6331
▁Poo	-11.6332
▁Alan	-11.6332
▁Central	-11.6333
▁procrastinating	-11.6333
▁confident	-11.6333
▁amazon	-11.6333
▁TALK	-11.6333
▁rugby	-11.6333
▁vision	-11.6336
▁jason	-11.6337
▁motion	-11.6337
gether	-11.6338
oot	-11.6338
▁motor	-11.6338
▁berry	-11.634
▁Freak	-11.6341
▁Feelin	-11.6343
▁zip	-11.6346
▁wipe	-11.6346
FE	-11.6346
▁caused	-11.6347
▁vacay	-11.6348
▁Rich	-11.6349
▁fond	-11.6352
LAND	-11.6354
▁hur	-11.6355
aaaah	-11.6356
▁castle	-11.6358
▁nw	-11.6361
▁Yahoo	-11.6362
▁Hiya	-11.6363
vor	-11.6365
17	-11.6367
DuN	-11.6368
ural	-11.6369
▁Lion	-11.6375
▁heartbroken	-11.6382
▁fireworks	-11.6382
▁illegal	-11.6382
▁wallpaper	-11.6382
▁method	-11.6382
▁robert	-11.6383
▁edward	-11.6385
▁HBO	-11.6385
▁produce	-11.639
▁glue	-11.639
▁WOOT	-11.6395
▁85	-11.6395
▁soooooooo	-11.6396
▁hometown	-11.64
▁upsetting	-11.64
▁digging	-11.6402
▁chef	-11.6402
▁GI	-11.6406
▁mountains	-11.6408
▁giggle	-11.6414
▁below	-11.6414
egan	-11.6415
hhhhhhh	-11.6416
aaaay	-11.6417
KA	-11.6418
▁killin	-11.6418
lex	-11.642
▁choices	-11.6427
▁Jer	-11.643
▁Young	-11.643
▁financial	-11.6431
▁ourselves	-11.6431
▁DOWN	-11.6432
▁Manila	-11.6434
▁tar	-11.6435
▁Hee	-11.6436
nut	-11.644
▁European	-11.6442
▁700	-11.6442
door	-11.6443
OH	-11.6445
wai	-11.6446
▁gram	-11.6447
TR	-11.6447
▁Huh	-11.6447
▁Est	-11.6455
▁lunchtime	-11.6456
▁blocking	-11.646
▁Ser	-11.646
hahaha	-11.6461
lc	-11.6465
▁rode	-11.6473
dis	-11.6474
▁healing	-11.6475
▁mud	-11.6476
▁OO	-11.6477
▁shin	-11.6479
▁bebo	-11.648
▁awaiting	-11.648
▁causing	-11.648
▁resort	-11.6481
script	-11.6481
▁Record	-11.6481
▁netbook	-11.6482
▁salsa	-11.6483
13	-11.6483
▁DR	-11.6484
▁faint	-11.6485
▁Beside	-11.6489
TCH	-11.649
ookie	-11.6493
▁AW	-11.6495
kr	-11.6503
▁March	-11.6504
▁Zach	-11.6506
▁Wine	-11.6511
▁Pic	-11.6512
vil	-11.6514
yrs	-11.6519
▁CU	-11.652
▁command	-11.6522
▁twitterers	-11.6522
▁brighten	-11.6523
▁factor	-11.6525
▁leather	-11.653
▁microwave	-11.653
▁happily	-11.653
▁lottery	-11.653
▁clinic	-11.6531
▁hooray	-11.6532
▁Jerry	-11.6532
ANT	-11.6533
▁sunscreen	-11.6534
▁Blink	-11.6534
▁km	-11.6534
▁ole	-11.6534
▁eee	-11.6535
col	-11.6539
FT	-11.6539
urr	-11.654
▁farmer	-11.6543
▁250	-11.6543
▁Fit	-11.6543
▁kyle	-11.6545
▁Katy	-11.6545
▁lush	-11.6549
▁HELLO	-11.6555
tail	-11.6555
▁router	-11.6556
ASH	-11.6559
100	-11.6559
▁jeez	-11.656
▁chicks	-11.6562
DI	-11.6563
rop	-11.6565
til	-11.6566
▁PH	-11.6579
▁WOULD	-11.658
▁studied	-11.658
▁wolf	-11.6581
plo	-11.6584
▁betta	-11.659
lad	-11.6591
▁DI	-11.6591
▁fitness	-11.6592
▁goodies	-11.6593
TION	-11.6596
aaaaaaaa	-11.6597
HHHH	-11.6598
▁lastnight	-11.6599
uv	-11.6599
▁teenager	-11.6601
▁Agreed	-11.6601
than	-11.6602
▁china	-11.6605
mmmmm	-11.6606
mmmmmmm	-11.6606
▁Nighty	-11.6607
▁buck	-11.6608
aze	-11.6611
ios	-11.6611
▁bothering	-11.6615
▁essays	-11.6618
posed	-11.6619
▁brian	-11.6625
urg	-11.6625
rating	-11.6626
▁crossing	-11.6626
▁AAA	-11.663
▁Somehow	-11.663
▁Titanic	-11.663
▁Michigan	-11.663
worth	-11.663
▁Fab	-11.6631
▁paramore	-11.6631
▁stroke	-11.6631
▁scored	-11.6636
▁medical	-11.6636
▁Heroes	-11.6636
▁mau	-11.6637
▁Alice	-11.6637
▁blessing	-11.6639
▁fiance	-11.664
▁GG	-11.6641
▁Hum	-11.6641
▁dough	-11.6643
▁daughters	-11.6645
ICE	-11.6652
▁raised	-11.6654
mph	-11.6656
▁poison	-11.6657
▁italy	-11.6658
▁Tro	-11.6661
▁Set	-11.6661
like	-11.6661
▁approve	-11.6667
VER	-11.6675
▁Horrible	-11.6681
▁NEXT	-11.6681
▁Problem	-11.6681
▁Vacation	-11.6681
▁PHONE	-11.6681
▁pudding	-11.6681
▁george	-11.6681
▁complex	-11.6682
▁Beatles	-11.6682
▁valley	-11.6682
▁pete	-11.6683
▁drill	-11.6684
▁Kitty	-11.6684
ators	-11.6685
▁practically	-11.6685
▁bucket	-11.6686
▁Farm	-11.669
▁Papa	-11.6691
▁clothing	-11.6697
▁Kiss	-11.6697
erson	-11.6698
▁EA	-11.67
▁warming	-11.6701
itt	-11.6702
ava	-11.6702
▁twisted	-11.6706
▁micro	-11.6708
▁pill	-11.6708
▁PL	-11.6711
sssssss	-11.6713
VI	-11.6714
rel	-11.6719
▁Bang	-11.6722
▁xoxoxo	-11.6722
▁constant	-11.6724
▁97	-11.6731
▁Instead	-11.6732
▁Preparing	-11.6732
▁vitamin	-11.6732
▁Heaven	-11.6732
▁referring	-11.6732
▁visual	-11.6732
▁mystery	-11.6733
▁confirmation	-11.6733
▁tutor	-11.6735
▁solve	-11.6736
▁dedicated	-11.6737
oli	-11.6739
▁embarrassing	-11.674
BC	-11.6741
mont	-11.6741
▁grave	-11.6746
ously	-11.6747
fuck	-11.6753
▁Anyways	-11.6755
▁jeff	-11.6763
▁rick	-11.677
ander	-11.6773
▁owned	-11.6775
▁payment	-11.6781
▁BEAUTIFUL	-11.6783
▁Chrome	-11.6783
▁portfolio	-11.6783
▁vegetarian	-11.6783
▁Lambert	-11.6783
▁television	-11.6783
▁shocking	-11.6783
▁object	-11.6783
▁Network	-11.6783
▁snoring	-11.6783
▁Ram	-11.6783
▁toothache	-11.6784
▁Whew	-11.6784
▁defeat	-11.6786
▁Twitterverse	-11.6787
▁charlie	-11.6788
▁faves	-11.6789
▁MAD	-11.6791
▁Crack	-11.6793
▁twee	-11.6795
name	-11.6797
▁Silly	-11.6797
▁33333	-11.6798
▁torn	-11.6799
▁sandwiches	-11.68
▁Coll	-11.6801
▁boost	-11.6802
▁199	-11.6804
▁Er	-11.681
▁gran	-11.6811
onic	-11.6814
▁Aus	-11.6815
▁scares	-11.6817
▁detail	-11.6818
▁LOVES	-11.6818
▁harm	-11.6819
uce	-11.6819
HS	-11.682
▁DL	-11.6823
▁batt	-11.6824
▁ky	-11.6825
▁dressing	-11.6826
▁loveee	-11.6827
wise	-11.6828
▁EU	-11.6828
▁column	-11.6834
▁cycling	-11.6834
▁permanent	-11.6834
mouth	-11.6835
▁Tiger	-11.6835
▁prevent	-11.6835
vation	-11.6835
▁ent	-11.6845
bad	-11.6849
▁witness	-11.6851
ooooooooooo	-11.6853
EEN	-11.6856
▁thr	-11.6856
▁Com	-11.6857
▁ahahaha	-11.6865
▁RI	-11.6869
▁guna	-11.6869
raz	-11.6873
OU	-11.6874
▁philippines	-11.6885
▁shrimp	-11.6885
▁toronto	-11.6886
▁fantasy	-11.6886
▁adventures	-11.6886
▁charging	-11.6886
▁breast	-11.6887
▁banner	-11.6888
▁RC	-11.689
dal	-11.6891
▁realizing	-11.6892
▁wheat	-11.6892
▁UPS	-11.6893
▁Without	-11.6894
▁praise	-11.6894
▁erm	-11.6895
▁Rise	-11.6897
▁napping	-11.6898
▁bush	-11.6909
▁shares	-11.6914
por	-11.6914
▁registered	-11.6916
▁Laugh	-11.6917
▁cartoon	-11.6921
rig	-11.6925
▁ringing	-11.6926
aY	-11.6927
▁som	-11.6928
▁tut	-11.6928
▁spy	-11.693
▁Pie	-11.6934
chie	-11.6936
▁represent	-11.6937
▁religion	-11.6937
▁impression	-11.6937
▁clown	-11.6937
▁PLAY	-11.6938
▁ireland	-11.6938
eeeeeeee	-11.6939
▁uhm	-11.6939
elli	-11.6942
▁Perry	-11.6942
▁shown	-11.6943
▁twas	-11.6945
▁IDK	-11.6946
▁selfish	-11.6949
▁Pushing	-11.6949
▁Monster	-11.6951
▁pt	-11.6952
▁stealing	-11.6953
▁rachel	-11.6953
rupt	-11.6954
▁bec	-11.6955
▁powerful	-11.6956
▁98	-11.6956
flu	-11.6958
▁poss	-11.6959
▁easter	-11.696
CI	-11.6966
▁touching	-11.6966
▁Felt	-11.697
▁treating	-11.6973
lbs	-11.6973
▁Pl	-11.6973
hold	-11.6976
▁DoD	-11.6977
▁shade	-11.6977
▁rank	-11.6978
▁stuffy	-11.6978
▁requests	-11.6979
▁eps	-11.698
▁tak	-11.698
▁technical	-11.6982
▁CE	-11.6989
▁brill	-11.6989
▁industry	-11.6989
▁sprained	-11.6989
▁Orange	-11.6989
▁appearance	-11.6991
onia	-11.6995
▁120	-11.6996
▁cya	-11.6998
▁Que	-11.7001
▁exit	-11.7002
▁auntie	-11.7003
law	-11.7016
▁SMS	-11.7017
▁Sil	-11.7021
talk	-11.7021
▁KILL	-11.7023
▁cri	-11.7025
▁sucker	-11.7028
▁Sort	-11.7031
ulu	-11.7034
▁GU	-11.7036
▁viewing	-11.704
▁cups	-11.7041
▁Age	-11.7041
▁lighter	-11.7041
▁Decided	-11.7042
▁symptoms	-11.7042
▁thirsty	-11.7042
▁UO	-11.7042
▁hawaii	-11.7042
▁activity	-11.7042
▁reinstall	-11.7043
▁Fre	-11.7044
▁Macbook	-11.7044
▁Lines	-11.7045
▁bahaha	-11.7045
▁Cop	-11.7045
hl	-11.705
▁camper	-11.7051
heat	-11.7052
arian	-11.7055
game	-11.7056
▁import	-11.7057
lick	-11.7058
hoe	-11.706
▁DVDs	-11.7062
▁unpacking	-11.7064
▁worm	-11.7065
bc	-11.7066
pid	-11.7068
95	-11.7069
▁wax	-11.707
▁Sports	-11.7073
▁Awwwww	-11.7075
▁models	-11.7076
▁megan	-11.7077
▁contain	-11.7078
FI	-11.7083
▁peak	-11.7085
▁Stress	-11.7087
UE	-11.7087
▁mighty	-11.7088
▁twitting	-11.7091
▁Extreme	-11.7094
▁Liverpool	-11.7094
▁struggle	-11.7094
▁deleting	-11.7094
▁Otherwise	-11.7094
▁Screw	-11.7095
▁regents	-11.7095
▁obsession	-11.7095
▁commute	-11.7095
▁shite	-11.7095
▁Pls	-11.7096
▁pose	-11.71
kee	-11.71
▁Gear	-11.7104
▁abandoned	-11.7105
▁Gary	-11.7105
▁footage	-11.7105
▁Umm	-11.7105
▁Aha	-11.7107
▁cli	-11.7109
▁snacks	-11.7109
▁thesis	-11.7116
del	-11.7118
▁Sup	-11.7118
▁blisters	-11.7119
▁thang	-11.7121
▁bangs	-11.7128
EEEEEE	-11.7132
▁Past	-11.7134
▁arg	-11.7138
▁ordering	-11.714
▁Edinburgh	-11.7147
▁Nintendo	-11.7147
▁farewell	-11.7147
▁intention	-11.7147
▁broadband	-11.7147
▁blogspot	-11.7148
▁suitcase	-11.7148
▁operation	-11.7148
▁index	-11.7148
▁royal	-11.7149
▁Silver	-11.7149
▁Lazy	-11.715
▁consume	-11.715
▁loooove	-11.715
UI	-11.7152
▁Pool	-11.7153
raw	-11.7154
UST	-11.7155
▁flood	-11.7157
Ch	-11.7157
▁knight	-11.7158
▁AR	-11.716
▁designs	-11.7166
▁panel	-11.7167
▁blessings	-11.7169
▁CB	-11.7169
▁72	-11.7171
▁folder	-11.7171
▁sweater	-11.7174
▁Champ	-11.7174
▁lbs	-11.7175
▁pedi	-11.7177
chester	-11.7179
chat	-11.7179
AAAAAA	-11.7185
▁Mont	-11.7186
▁Hehehe	-11.7186
dh	-11.7187
ippin	-11.7194
▁Wear	-11.7195
zel	-11.7198
leg	-11.72
▁90210	-11.72
▁oatmeal	-11.72
▁proposal	-11.72
▁temperature	-11.72
▁vintage	-11.72
▁nursing	-11.72
▁occur	-11.72
▁Health	-11.7201
▁doughnut	-11.7201
▁Montreal	-11.7201
▁horrid	-11.7201
▁Francisco	-11.7201
▁spammers	-11.7201
▁frown	-11.7201
▁wrapped	-11.7201
▁amused	-11.7201
▁cellphone	-11.7201
▁promising	-11.7202
eye	-11.7202
▁electricity	-11.7202
▁whew	-11.7203
▁stiff	-11.7203
▁Rep	-11.7204
▁fairy	-11.7205
▁confuse	-11.7214
▁fuk	-11.7215
▁fren	-11.7216
▁AF	-11.7217
▁whack	-11.7217
▁werent	-11.7219
ttttt	-11.7223
▁CRAP	-11.7227
▁Toy	-11.723
▁adopt	-11.7231
▁Fine	-11.7233
▁Following	-11.7234
▁touring	-11.7237
icle	-11.7238
bon	-11.724
▁errors	-11.724
▁les	-11.7242
space	-11.7243
AHAHA	-11.7247
▁Den	-11.7248
▁shades	-11.7251
▁Brilliant	-11.7254
▁explore	-11.7254
▁membership	-11.7255
▁Airport	-11.7256
▁ditch	-11.7257
▁Pride	-11.7258
▁NBC	-11.7258
nom	-11.7259
▁eek	-11.726
▁41	-11.7265
ckle	-11.7265
llllll	-11.7266
▁halo	-11.7272
▁43	-11.7275
ges	-11.7275
▁noodle	-11.7286
FL	-11.7288
▁packet	-11.7289
▁wayyy	-11.729
▁DIE	-11.7296
▁Gee	-11.73
▁unlike	-11.7301
▁goodnite	-11.7302
▁pong	-11.7303
▁flag	-11.7307
izzle	-11.7308
▁Exhausted	-11.7308
▁convention	-11.7308
▁horribly	-11.7308
▁submit	-11.7308
rom	-11.7308
▁pilot	-11.7308
▁Dunno	-11.7309
▁stepped	-11.731
ista	-11.7316
▁CSI	-11.7317
▁lane	-11.7321
▁bullet	-11.7325
SC	-11.7326
▁hve	-11.7327
▁blu	-11.7327
▁director	-11.7327
▁boil	-11.7333
▁deb	-11.7333
blo	-11.7336
▁curve	-11.7338
aaaaaaaaaaa	-11.7341
addy	-11.7343
▁bella	-11.7344
▁Heyy	-11.7345
matic	-11.7349
▁Stu	-11.7353
▁returning	-11.7356
▁Hat	-11.7356
yan	-11.7357
fan	-11.7358
▁poppin	-11.7359
▁tasted	-11.736
▁Deb	-11.736
▁companies	-11.7362
▁luggage	-11.7362
▁satisfied	-11.7362
▁eBay	-11.7362
▁generation	-11.7362
DDDD	-11.7362
▁TOTALL	-11.7364
mates	-11.7366
▁Hmmmm	-11.737
▁haaa	-11.737
▁Tues	-11.7373
▁Stuff	-11.7376
▁mails	-11.7381
▁reallly	-11.7382
▁listing	-11.7382
▁manual	-11.7382
▁HAHAHAHA	-11.7383
tell	-11.7384
▁jake	-11.7384
▁posters	-11.7384
▁Halo	-11.7385
▁02	-11.7385
▁Broke	-11.7388
▁learnt	-11.7388
▁weigh	-11.7393
OLD	-11.7394
ucci	-11.7395
▁grades	-11.7396
ml	-11.7396
▁Paint	-11.7397
▁Killer	-11.7397
jan	-11.7399
▁begun	-11.74
kan	-11.7403
▁Jazz	-11.7403
▁noooooo	-11.7406
▁noises	-11.7407
▁oldest	-11.7409
▁za	-11.741
▁pap	-11.7411
▁unfollowed	-11.7411
UUU	-11.7413
UH	-11.7414
▁Ham	-11.7416
▁ANYTHING	-11.7416
▁Zealand	-11.7416
▁communication	-11.7416
▁october	-11.7416
▁SWEET	-11.7416
▁WWDC	-11.7416
▁Consider	-11.7416
▁belated	-11.7416
▁foreign	-11.7417
▁uuu	-11.7417
met	-11.7418
▁biking	-11.7419
▁java	-11.742
▁neglected	-11.7422
▁Bride	-11.7422
▁Eli	-11.7424
leep	-11.7427
▁holes	-11.7427
▁responded	-11.7427
▁tay	-11.7427
▁Tru	-11.7428
RG	-11.7428
▁yaa	-11.7429
▁suits	-11.743
▁reli	-11.743
▁holds	-11.7432
▁Mission	-11.7433
▁hiking	-11.7435
▁Woop	-11.7436
▁sewing	-11.7436
stra	-11.7437
▁spreading	-11.7439
▁Sexy	-11.744
stand	-11.7445
▁debate	-11.7445
▁responding	-11.7446
▁wherever	-11.7447
▁woulda	-11.745
▁Tha	-11.745
▁TE	-11.7451
iva	-11.7453
▁Hold	-11.7463
▁pale	-11.7464
▁brad	-11.7464
▁triple	-11.7465
▁carrie	-11.7466
▁Film	-11.7466
DS	-11.7466
▁prime	-11.7466
▁Geez	-11.747
▁condolences	-11.7471
▁Atlantic	-11.7471
▁paradise	-11.7471
▁MILEY	-11.7471
▁nicole	-11.7471
▁chilled	-11.7473
▁looong	-11.7474
▁dread	-11.7475
▁foo	-11.7476
▁shorter	-11.7477
aving	-11.7478
99	-11.7479
▁MMS	-11.7479
▁BC	-11.7482
▁wondered	-11.7482
▁Sooooo	-11.7484
▁invest	-11.7484
▁fuel	-11.7486
water	-11.7486
▁rom	-11.7486
▁46	-11.7488
▁git	-11.749
▁cle	-11.7493
▁dragon	-11.7496
▁Fast	-11.7499
tv	-11.75
▁dee	-11.7504
▁Page	-11.7505
▁homeless	-11.7506
▁scott	-11.7511
bag	-11.7517
▁Doc	-11.7518
▁ure	-11.7521
asi	-11.7523
pose	-11.7523
▁December	-11.7526
▁champagne	-11.7526
▁shadow	-11.7526
▁innocent	-11.7526
▁christmas	-11.7526
▁Paramore	-11.7526
▁japan	-11.7526
▁TAKE	-11.7526
▁skipping	-11.7527
▁Gro	-11.753
core	-11.753
▁bookmark	-11.7531
▁Cream	-11.7535
▁headin	-11.7535
▁FC	-11.7536
▁Living	-11.7537
▁upgraded	-11.7539
▁hangout	-11.754
▁BI	-11.7542
ites	-11.7542
▁rental	-11.7543
▁spoken	-11.7546
▁PSP	-11.7547
▁fuss	-11.7549
▁peep	-11.7553
▁burns	-11.7553
▁Err	-11.7555
▁understanding	-11.7556
▁drown	-11.7557
▁BY	-11.7558
bear	-11.7558
▁Au	-11.7561
▁cart	-11.7561
illy	-11.7564
▁writers	-11.7569
▁subs	-11.7573
▁applications	-11.7574
▁scenes	-11.758
▁GCSE	-11.7581
▁STUPID	-11.7581
▁milkshake	-11.7581
▁treadmill	-11.7581
▁Believe	-11.7581
▁fwd	-11.7581
▁winners	-11.7581
NES	-11.7582
▁tasting	-11.7582
▁squeeze	-11.7582
▁View	-11.7582
▁seattle	-11.7583
▁choir	-11.7587
▁sissy	-11.759
▁needles	-11.7592
▁sms	-11.7594
▁youngest	-11.7594
▁mrs	-11.7597
▁champion	-11.7598
▁List	-11.7599
▁deff	-11.7601
▁pairs	-11.7601
▁journal	-11.7609
kkkk	-11.7609
▁buh	-11.7612
▁forms	-11.7615
▁Sis	-11.7616
▁Sonic	-11.7618
▁Ven	-11.7619
dium	-11.7622
▁Arg	-11.7622
▁han	-11.7622
▁lifetime	-11.7627
▁fourth	-11.7627
azz	-11.7631
OCK	-11.7631
▁peas	-11.7636
▁contemplating	-11.7636
▁influence	-11.7636
▁COULD	-11.7636
▁Nearly	-11.7636
▁BITCH	-11.7637
▁dougie	-11.7637
▁fortune	-11.7637
ough	-11.7637
200	-11.7637
▁Woah	-11.7638
▁argue	-11.7638
▁Nut	-11.7639
▁Nic	-11.7639
▁Hulu	-11.7639
▁ment	-11.764
ift	-11.764
ider	-11.7641
▁Stra	-11.7641
▁Alone	-11.7641
▁Body	-11.7643
▁badass	-11.7644
▁Sell	-11.7645
path	-11.7645
65	-11.7646
▁popping	-11.7646
▁haunt	-11.7647
▁Date	-11.7648
▁attract	-11.7648
▁Rome	-11.7653
▁McDonalds	-11.7654
argh	-11.7656
ife	-11.7658
▁avoiding	-11.766
▁FAN	-11.766
▁drained	-11.767
▁stain	-11.7671
▁summertime	-11.7671
▁cheating	-11.7673
▁oral	-11.7674
ground	-11.7674
▁anger	-11.7674
▁Testing	-11.7675
▁WP	-11.768
▁bare	-11.7684
▁Indiana	-11.7684
▁Spa	-11.7684
▁Teen	-11.7686
hey	-11.7687
▁delight	-11.7688
▁Misses	-11.7691
▁Pattinson	-11.7692
▁construction	-11.7692
▁suicide	-11.7692
▁storage	-11.7692
▁goodluck	-11.7692
▁brb	-11.7692
▁trapped	-11.7693
▁skating	-11.7693
▁attractive	-11.7693
▁Phew	-11.7694
▁kiddo	-11.7696
▁hamster	-11.7697
19	-11.7698
▁teasing	-11.7698
▁slave	-11.7699
nta	-11.7705
▁strep	-11.7705
chin	-11.7707
▁bleed	-11.7708
▁moi	-11.771
▁slower	-11.7711
▁neva	-11.7711
▁retail	-11.7713
▁reserve	-11.7714
▁andrew	-11.7717
jk	-11.7718
▁grrrrr	-11.7718
▁Yeh	-11.7719
▁depend	-11.7719
▁lolol	-11.7724
▁Za	-11.7724
▁Twin	-11.7724
▁billion	-11.7725
▁Pack	-11.7727
fun	-11.7729
iga	-11.773
▁shoppin	-11.7731
▁whit	-11.7735
minate	-11.774
▁lmaoo	-11.7741
▁comming	-11.7743
▁LUV	-11.7748
▁Archuleta	-11.7749
▁CONGRATS	-11.7749
▁cuddling	-11.7749
▁tequila	-11.7749
▁economic	-11.7749
▁length	-11.7749
▁melbourne	-11.7749
▁admire	-11.7749
▁jailbreak	-11.7749
▁EVEN	-11.7749
▁Photoshop	-11.7749
▁chasing	-11.775
▁Bedtime	-11.7752
▁steve	-11.7752
RED	-11.7754
▁chunk	-11.7755
▁NOOO	-11.7761
▁gathering	-11.7763
▁Nu	-11.7763
opped	-11.7767
▁laughter	-11.7769
▁AB	-11.7769
▁Marc	-11.7775
▁hump	-11.7776
▁sonic	-11.7776
▁outdoor	-11.7782
ssa	-11.7784
nnnnnnn	-11.7788
pad	-11.7789
nno	-11.779
ually	-11.7793
ency	-11.7793
▁TN	-11.7795
▁shakes	-11.7796
USH	-11.7801
▁sticking	-11.7803
▁waaa	-11.7804
Me	-11.7804
▁BORING	-11.7805
▁michelle	-11.7805
▁bamboozle	-11.7805
▁HOUSE	-11.7805
▁advertising	-11.7805
▁Sugar	-11.7806
▁Dancing	-11.7807
▁greek	-11.7807
ways	-11.7808
OKE	-11.7809
▁sunrise	-11.7809
▁Brandon	-11.781
▁Forget	-11.781
▁emotions	-11.7813
cakes	-11.7818
▁Fest	-11.7821
▁era	-11.7821
▁wr	-11.7826
dder	-11.7835
eur	-11.7837
▁52	-11.7843
▁CAR	-11.7843
▁featured	-11.7844
▁lovers	-11.7849
▁mister	-11.785
▁coin	-11.7852
▁addition	-11.7854
▁heater	-11.7855
▁veg	-11.7856
oma	-11.7859
▁Daisies	-11.7862
▁nuggets	-11.7862
▁ninja	-11.7862
▁nowadays	-11.7862
▁reveal	-11.7862
▁shuffle	-11.7862
▁threat	-11.7862
▁batteries	-11.7863
▁Mix	-11.7863
bur	-11.7864
▁stronger	-11.7866
▁Ooooh	-11.7867
▁supply	-11.7867
▁sista	-11.7868
▁Eff	-11.7869
▁wnt	-11.7869
▁Bean	-11.7873
▁solved	-11.7877
▁hopeful	-11.7878
▁holly	-11.7879
▁tum	-11.788
▁Jackie	-11.7884
ima	-11.7893
▁Search	-11.7895
▁boob	-11.7896
▁cope	-11.7897
APS	-11.79
▁whom	-11.7905
▁Jet	-11.7906
alo	-11.7911
verse	-11.7911
▁sucking	-11.7912
iel	-11.7913
▁benefit	-11.7914
▁platform	-11.7919
▁regardless	-11.7919
▁earrings	-11.7919
▁Easy	-11.7919
▁infected	-11.7919
kle	-11.7919
▁village	-11.7921
▁Stick	-11.7923
▁false	-11.7924
▁kidney	-11.7924
▁yummm	-11.7924
▁Slow	-11.7925
▁quest	-11.7927
TING	-11.7931
▁approved	-11.7935
▁runny	-11.7938
▁ea	-11.7939
▁Gene	-11.7939
▁Finding	-11.7952
▁rack	-11.7952
▁euro	-11.7955
▁Buck	-11.7958
▁spill	-11.7959
▁Wor	-11.7965
urgh	-11.7966
ester	-11.7969
▁kaya	-11.7975
▁McMahon	-11.7976
▁understood	-11.7976
▁whisper	-11.7976
▁Carolina	-11.7977
▁Cloud	-11.7977
▁Crow	-11.7977
▁liz	-11.7981
▁kiddos	-11.7985
INT	-11.7986
▁SK	-11.7987
▁disappoint	-11.7989
▁Korean	-11.7989
▁muah	-11.799
kill	-11.7992
▁puff	-11.7992
▁Ruby	-11.7993
▁cartoons	-11.7994
▁favs	-11.7995
▁Huge	-11.7997
ital	-11.8
▁Ze	-11.8003
▁alike	-11.8005
lou	-11.8007
▁overload	-11.8008
ISE	-11.801
▁mob	-11.801
▁rave	-11.8014
▁Brain	-11.8014
▁followin	-11.8015
▁pony	-11.8015
64	-11.8016
ova	-11.8018
▁Giv	-11.8021
hahahah	-11.8023
mil	-11.8024
▁Dell	-11.8025
▁employ	-11.8026
▁Whole	-11.8026
▁rooting	-11.8027
▁89	-11.8027
▁sheet	-11.8028
▁waffle	-11.803
▁boyle	-11.8032
▁Beyonce	-11.8034
▁responsible	-11.8034
▁Brooklyn	-11.8034
▁Psych	-11.8034
▁measure	-11.8034
▁Figur	-11.8035
▁twitterville	-11.8035
▁FOREVER	-11.8035
▁nickname	-11.8035
▁knitting	-11.8035
▁OOC	-11.8036
▁teddy	-11.8037
▁RB	-11.8038
▁States	-11.804
OOL	-11.804
▁raid	-11.8041
fall	-11.8042
▁tomatoes	-11.8042
▁attached	-11.8045
▁Bath	-11.8048
▁workers	-11.805
▁freezer	-11.8051
▁deer	-11.8051
mies	-11.8053
▁sleepless	-11.8053
▁designed	-11.8054
▁Tip	-11.8054
▁flake	-11.8054
▁yaay	-11.8056
▁Luke	-11.8056
▁remembering	-11.8057
▁eeee	-11.8058
▁tuna	-11.8059
▁BET	-11.8059
OOOOOO	-11.8063
▁PB	-11.8063
▁fred	-11.8064
▁throughout	-11.8065
▁GH	-11.807
▁Asian	-11.8076
wards	-11.8077
▁records	-11.8079
▁slim	-11.8081
▁Cookie	-11.8082
▁flops	-11.8082
▁arrives	-11.8085
▁pwn	-11.8086
aja	-11.8087
▁entered	-11.8088
station	-11.8088
dance	-11.8089
YYYY	-11.809
aries	-11.8092
▁BlackBerry	-11.8092
▁practicing	-11.8092
▁gadget	-11.8092
▁Children	-11.8093
IAN	-11.8093
bye	-11.8093
▁Twitpic	-11.8093
▁definit	-11.8093
▁annual	-11.8093
▁fuzzy	-11.8093
▁sleeve	-11.8094
▁determined	-11.8096
▁Iranian	-11.8106
▁Kit	-11.8108
▁Lucy	-11.8108
aunt	-11.8109
▁Leon	-11.811
think	-11.8111
▁casa	-11.8115
▁chica	-11.8118
lson	-11.8118
▁Soul	-11.8118
made	-11.8127
▁unpack	-11.8127
▁blo	-11.8128
ggggg	-11.8128
▁highlights	-11.813
▁dolls	-11.8132
▁rove	-11.8137
▁47	-11.8137
▁nA	-11.8139
▁Turns	-11.814
bla	-11.8142
▁upper	-11.8146
▁Sav	-11.8146
cas	-11.8146
▁wooooo	-11.8147
▁aku	-11.815
▁FIRST	-11.8151
▁Lebron	-11.8151
▁government	-11.8151
▁scotland	-11.8151
▁Square	-11.8151
▁rhyme	-11.8151
▁Colorado	-11.8151
▁assuming	-11.8151
TC	-11.8151
▁loosing	-11.8151
▁agenda	-11.8152
▁highschool	-11.8152
▁programming	-11.8152
▁granny	-11.8153
▁urban	-11.8153
▁spamming	-11.8153
▁Dutch	-11.8153
▁seminar	-11.8154
party	-11.8154
▁WHOLE	-11.8154
▁2007	-11.8154
▁blend	-11.8159
▁treats	-11.816
▁nk	-11.8161
▁editor	-11.8162
▁Mail	-11.8164
▁wiped	-11.8169
▁Ummm	-11.8172
▁chillen	-11.8173
▁tires	-11.8175
▁Wouldn	-11.818
▁dur	-11.8181
▁3333	-11.8188
ision	-11.8189
▁RP	-11.8192
▁commented	-11.8192
▁Beta	-11.8194
▁yaaay	-11.8195
ASE	-11.82
▁GAH	-11.8202
▁PRE	-11.8202
▁linked	-11.8205
▁Hung	-11.8207
▁MUSIC	-11.821
▁anatomy	-11.821
▁confidence	-11.821
▁sympathy	-11.821
▁Monkey	-11.8211
▁Everytime	-11.8212
▁disneyland	-11.8212
▁sweating	-11.8215
▁debut	-11.8215
▁BT	-11.8215
▁kk	-11.8217
▁pul	-11.8217
▁scale	-11.8224
▁sumthin	-11.8232
▁447	-11.8232
▁layin	-11.8234
jack	-11.8237
▁becomes	-11.8238
▁boiling	-11.8238
IX	-11.8239
pies	-11.8243
▁cm	-11.8248
▁Damnit	-11.8252
▁KO	-11.8254
▁moth	-11.8256
▁Edit	-11.8261
▁spiders	-11.8264
▁wiff	-11.8267
▁impatient	-11.8269
▁University	-11.8269
▁terrified	-11.8269
▁volume	-11.8269
▁etsy	-11.827
▁syrup	-11.827
▁appeal	-11.8271
▁Jared	-11.8271
▁scrubs	-11.8271
▁Holland	-11.8273
▁pooped	-11.8279
▁serving	-11.828
▁joey	-11.828
▁rejected	-11.8283
hee	-11.8286
▁Giant	-11.8289
▁gene	-11.829
▁rents	-11.8291
▁scam	-11.8292
▁yank	-11.8295
▁leading	-11.8296
▁clips	-11.8317
▁Jesse	-11.8317
▁LAME	-11.8317
14	-11.8318
TU	-11.8318
▁Julie	-11.8327
▁KC	-11.8327
▁ANOTHER	-11.8328
▁antibiotics	-11.8328
▁sprinkle	-11.8328
▁Animal	-11.8328
▁southern	-11.8328
▁GB	-11.833
▁returns	-11.833
▁rays	-11.8335
cept	-11.8335
▁Shar	-11.8337
▁travelling	-11.8338
ential	-11.8339
▁reboot	-11.834
▁gg	-11.8342
▁Heather	-11.8342
▁homies	-11.8343
▁deg	-11.8343
▁SG	-11.8346
▁yeee	-11.8347
ante	-11.8349
kt	-11.8352
rrie	-11.8354
▁Followers	-11.8354
▁pigs	-11.8355
▁Leg	-11.8356
▁melted	-11.8356
berries	-11.8359
▁Conf	-11.8362
▁Jean	-11.8365
▁comics	-11.8367
▁brake	-11.8368
▁Evening	-11.8369
azi	-11.8369
▁FE	-11.8372
NESS	-11.8373
tastic	-11.8376
▁boohoo	-11.838
▁Gal	-11.838
▁commit	-11.8382
▁speaker	-11.8382
▁illness	-11.8383
▁girlfriends	-11.8384
▁hidden	-11.8388
▁Lewis	-11.8388
▁Etsy	-11.8388
▁ceiling	-11.8388
▁Coldplay	-11.8389
▁organic	-11.8389
dream	-11.8389
▁SUCH	-11.8389
▁MOON	-11.8389
▁poetry	-11.8389
▁valid	-11.8389
▁countries	-11.839
▁shld	-11.8391
▁KFC	-11.8391
▁Vines	-11.8392
▁Hilton	-11.8393
▁gahh	-11.8393
▁tempting	-11.8394
▁Seven	-11.8394
▁oi	-11.8394
▁Ahhhhh	-11.8397
▁Cle	-11.8399
▁monthly	-11.84
▁reco	-11.8407
jam	-11.8407
▁disturbing	-11.841
▁Jenny	-11.8412
▁mite	-11.8413
▁refreshed	-11.8414
iling	-11.8416
▁moan	-11.8417
▁Tree	-11.8419
▁entertained	-11.8421
▁CHE	-11.8424
▁Learn	-11.8425
▁timeline	-11.843
▁nyt	-11.843
ridge	-11.8433
▁insist	-11.8437
▁MM	-11.844
75	-11.8441
izzy	-11.8441
21	-11.8442
▁endless	-11.8444
▁badge	-11.8446
▁Disappointed	-11.8449
▁Indonesia	-11.8449
▁coconut	-11.8449
▁AFTER	-11.8449
▁corrupt	-11.8449
▁diamond	-11.8449
▁streak	-11.8449
▁kristen	-11.8449
▁Ipod	-11.8451
itten	-11.8452
▁WERE	-11.8453
▁carrying	-11.8453
beat	-11.8454
▁girlies	-11.8456
▁Evan	-11.8456
▁hottest	-11.8457
▁AWAY	-11.8458
▁Worth	-11.8458
▁Tis	-11.846
▁diego	-11.846
▁physically	-11.8461
▁bathing	-11.8463
▁Lex	-11.8463
▁pinch	-11.8464
▁Eyes	-11.8464
mmmmmm	-11.8465
UB	-11.8465
▁yoo	-11.8466
▁saddened	-11.8466
▁slut	-11.8467
▁treated	-11.8467
▁relieved	-11.8468
▁booty	-11.8473
▁wor	-11.8475
▁GF	-11.848
▁dvds	-11.848
▁ED	-11.8482
rou	-11.8484
▁recovered	-11.8486
▁idiots	-11.8488
cip	-11.8489
▁AJ	-11.8489
▁hal	-11.849
▁Div	-11.849
ffer	-11.8491
check	-11.8493
▁nerve	-11.8495
▁chapters	-11.8504
▁maria	-11.8506
▁Boooo	-11.8508
▁Pixar	-11.8509
▁Traffic	-11.8509
▁vacuum	-11.8509
▁twenty	-11.8509
▁mourning	-11.8509
▁Salvation	-11.8509
▁auction	-11.8509
▁interface	-11.851
▁phase	-11.851
UU	-11.8511
▁insult	-11.8512
itor	-11.8512
▁Charles	-11.8512
▁korean	-11.8513
▁Dun	-11.8513
▁Castle	-11.8514
scape	-11.8516
▁Jose	-11.8516
▁allll	-11.8519
▁Enter	-11.852
▁dive	-11.8522
▁expired	-11.8523
heads	-11.8523
▁yeahhh	-11.8524
▁Milk	-11.8525
▁oww	-11.8533
▁rail	-11.8538
▁heheh	-11.8539
▁Load	-11.8541
pass	-11.8542
NNNN	-11.8543
osa	-11.8546
▁defo	-11.8546
▁Ave	-11.8548
▁tweeties	-11.855
▁consist	-11.8552
▁Sent	-11.8558
eem	-11.8558
active	-11.8562
▁freaky	-11.8562
▁WW	-11.8564
PO	-11.8567
▁bold	-11.8567
▁danced	-11.8567
▁Jonathan	-11.857
▁Malaysia	-11.857
▁survivor	-11.857
▁eminem	-11.857
▁Aug	-11.857
▁pero	-11.8571
ANCE	-11.8571
▁Women	-11.8571
▁loooong	-11.8571
▁bond	-11.8571
▁yur	-11.8576
▁boi	-11.8577
▁victory	-11.8578
YS	-11.8581
▁YEA	-11.8581
▁fence	-11.8581
▁OT	-11.8581
▁Drew	-11.8582
▁input	-11.8584
▁Bones	-11.8585
26	-11.8589
▁FRIENDS	-11.859
dem	-11.8591
▁runner	-11.8591
▁Shall	-11.8595
rence	-11.8598
▁lend	-11.8598
▁pounding	-11.8601
mming	-11.8606
▁Om	-11.8607
▁MB	-11.8608
▁stickam	-11.8609
▁pace	-11.8615
nova	-11.8617
▁sci	-11.8617
▁Yey	-11.8617
▁organize	-11.8618
▁Arm	-11.8618
▁goals	-11.8624
IO	-11.8629
▁102	-11.863
▁Keith	-11.8631
▁Universe	-11.8632
▁WEEKEND	-11.8632
▁expense	-11.8632
▁sweep	-11.8633
▁Revision	-11.8633
▁shipped	-11.8634
▁effective	-11.8634
▁Russian	-11.8639
▁spree	-11.864
▁offended	-11.8642
tory	-11.8644
rated	-11.8644
▁Chick	-11.8645
dit	-11.865
▁Chile	-11.8651
▁heroes	-11.8651
▁rolled	-11.8652
▁Meg	-11.8654
▁rocket	-11.8659
▁typed	-11.8659
▁Dane	-11.8662
leigh	-11.8663
▁slot	-11.8665
▁TF	-11.8665
rv	-11.8666
graph	-11.8667
morning	-11.8668
▁circ	-11.8671
vision	-11.8676
▁inspire	-11.8679
▁remaining	-11.8681
drop	-11.8684
▁pala	-11.8687
rage	-11.8688
▁mario	-11.869
▁suggested	-11.8691
drive	-11.8693
▁celebrities	-11.8693
▁environment	-11.8693
▁regarding	-11.8693
▁arriving	-11.8693
▁memorial	-11.8693
▁survey	-11.8693
▁presence	-11.8693
▁crisis	-11.8693
▁Personal	-11.8693
▁Wendy	-11.8694
▁jewelry	-11.8694
▁Sunburn	-11.8694
▁FACE	-11.8694
▁nausea	-11.8694
▁downside	-11.8695
▁Group	-11.8696
▁Throw	-11.8699
▁Babe	-11.8702
▁laker	-11.8705
▁yung	-11.8708
▁Bible	-11.8711
▁cuddles	-11.8711
▁flooded	-11.8716
▁Tear	-11.8716
▁Aaaa	-11.872
▁PJ	-11.872
▁sweety	-11.8724
pla	-11.8724
▁dc	-11.8725
iu	-11.8726
▁jane	-11.8727
▁darlin	-11.8728
▁Zac	-11.873
kies	-11.8732
▁Shaun	-11.8734
▁Cry	-11.8735
▁switching	-11.8735
print	-11.8737
▁honored	-11.8738
▁epi	-11.8738
▁PIC	-11.8739
uffle	-11.8744
aan	-11.8745
▁NDuD	-11.8746
▁ahahah	-11.8746
RRY	-11.8747
▁arrange	-11.8748
▁tink	-11.8749
▁dats	-11.875
▁Jr	-11.8752
cover	-11.8753
▁designing	-11.8755
▁Fashion	-11.8755
▁elephant	-11.8755
▁orientation	-11.8755
▁overslept	-11.8755
▁translation	-11.8755
▁unemployed	-11.8755
▁buffet	-11.8755
▁Happen	-11.8755
▁shucks	-11.8755
▁Walmart	-11.8755
▁electronic	-11.8755
▁hashtag	-11.8755
▁JUNE	-11.8755
▁Oprah	-11.8756
▁interrupt	-11.8756
▁Amber	-11.8756
▁Tyler	-11.8756
▁casual	-11.8756
▁Worked	-11.8758
▁visa	-11.8758
▁RAM	-11.876
have	-11.8761
▁region	-11.8764
▁printed	-11.8767
▁ballet	-11.8767
▁Sm	-11.8767
▁BRA	-11.8768
▁Wales	-11.8769
▁Code	-11.8772
▁recall	-11.8774
▁Bio	-11.878
▁CP	-11.878
born	-11.8784
player	-11.8784
▁Coke	-11.8786
▁Hun	-11.8788
▁Laker	-11.879
35	-11.879
afe	-11.8793
▁restless	-11.8797
endo	-11.8803
morow	-11.8803
▁ox	-11.8806
▁TS	-11.8808
▁Amen	-11.8808
hill	-11.8812
▁Awh	-11.8812
▁Virgin	-11.8817
▁basket	-11.8817
▁Nuggets	-11.8818
▁engagement	-11.8818
▁garbage	-11.8818
▁president	-11.8818
▁Parents	-11.8818
▁Wicked	-11.8818
▁Eurovision	-11.8818
▁exclusive	-11.8818
▁capital	-11.8818
▁organise	-11.8818
▁sandals	-11.8819
▁bloom	-11.8819
HAHA	-11.882
▁stamp	-11.8821
▁asia	-11.8822
▁Thankyou	-11.8826
ouse	-11.8827
▁suite	-11.8829
▁Rove	-11.8835
▁successfully	-11.8837
FC	-11.884
▁frickin	-11.884
▁overtime	-11.8844
tress	-11.8847
▁tricks	-11.8852
▁MEAN	-11.8854
IST	-11.8856
▁shore	-11.8858
▁ease	-11.8859
PH	-11.8863
lene	-11.8864
▁KA	-11.8869
▁behave	-11.8872
▁Downloading	-11.8872
hhhhhhhhhh	-11.8874
▁Esp	-11.8875
▁renew	-11.8875
screen	-11.8877
▁Evil	-11.888
▁brownie	-11.888
▁Newcastle	-11.8881
▁cinnamon	-11.8881
▁Accord	-11.8881
▁Memoria	-11.8881
▁dragging	-11.8881
▁Express	-11.8881
▁Tampa	-11.8882
▁pipe	-11.8882
▁jogging	-11.8882
awww	-11.8884
▁classmates	-11.8884
▁rubbing	-11.8884
ISH	-11.8885
▁Oo	-11.8886
▁personality	-11.8888
▁improvement	-11.8888
▁cookout	-11.8889
▁brazilian	-11.8889
hand	-11.8889
▁delish	-11.889
▁Vic	-11.889
rows	-11.8891
▁nag	-11.8891
▁stare	-11.8891
▁OUR	-11.8892
▁Pull	-11.8897
▁Mega	-11.8897
▁greetings	-11.8899
▁3000	-11.8901
▁colours	-11.8902
▁Perth	-11.8903
▁soaking	-11.8903
▁Wil	-11.8904
▁EAT	-11.8906
▁FULL	-11.8908
▁dumped	-11.8914
rise	-11.8918
▁matches	-11.8919
▁STR	-11.8924
▁offers	-11.8924
WWW	-11.8926
master	-11.8929
umm	-11.8931
▁guns	-11.8931
▁froze	-11.8932
▁96	-11.8935
▁nic	-11.8936
▁Act	-11.8937
▁neighbour	-11.8937
GGG	-11.8937
▁Neil	-11.8941
▁dah	-11.8942
▁asses	-11.8943
▁ALREADY	-11.8944
▁carnival	-11.8944
▁newsletter	-11.8944
▁sarcasm	-11.8944
▁shampoo	-11.8944
▁wardrobe	-11.8944
▁VIDEO	-11.8944
▁assessment	-11.8944
▁activities	-11.8944
▁resident	-11.8944
▁Interview	-11.8944
▁brutal	-11.8945
▁GAME	-11.8945
▁Valley	-11.8946
▁Picture	-11.8947
LU	-11.8948
▁DIS	-11.8948
▁selection	-11.8949
did	-11.895
▁Dom	-11.8952
▁pickle	-11.8952
▁Lock	-11.8953
▁refuses	-11.8953
▁kl	-11.8955
▁Press	-11.8955
▁exited	-11.8968
▁Aren	-11.8971
▁outlet	-11.8971
▁Auto	-11.8972
EEEEE	-11.8976
▁printing	-11.8977
▁JJ	-11.8978
CU	-11.8981
cake	-11.8983
ido	-11.8986
▁Barb	-11.8987
feed	-11.8987
TOR	-11.8989
▁rang	-11.8989
▁guilt	-11.8991
wel	-11.8991
ories	-11.8995
lets	-11.8996
blog	-11.9002
▁ducks	-11.9002
eeeeeeeeeeeeeeee	-11.9003
▁Bag	-11.9003
school	-11.9006
▁cleaner	-11.9006
▁Mickey	-11.9008
▁Mountain	-11.9008
▁housewives	-11.9008
▁sidekick	-11.9008
▁Adobe	-11.9008
▁Build	-11.9008
▁knife	-11.9008
▁Melissa	-11.9008
TP	-11.9008
atic	-11.9008
▁department	-11.9009
▁stroll	-11.9009
▁fudge	-11.9012
▁initial	-11.9012
▁Ride	-11.9015
▁srry	-11.9016
▁passengers	-11.9016
▁clap	-11.9018
▁Chang	-11.9018
LES	-11.9019
ITE	-11.9021
ould	-11.9021
▁heartbreaking	-11.9021
▁tries	-11.9022
▁GIVE	-11.9022
▁roses	-11.9023
▁RSS	-11.9023
▁unlimited	-11.9026
▁VE	-11.9027
▁56	-11.9031
RRR	-11.9033
▁Tap	-11.9035
▁sprint	-11.9036
andra	-11.9038
▁advertise	-11.904
▁tart	-11.9045
▁bball	-11.9046
▁melting	-11.9046
▁lan	-11.9051
▁amazin	-11.9053
▁Hear	-11.9057
SON	-11.9057
tweet	-11.906
▁Side	-11.906
▁RU	-11.9061
▁ants	-11.9062
wwwwwwww	-11.9065
▁SYTYCD	-11.9072
▁century	-11.9072
▁groceries	-11.9072
▁spaghetti	-11.9072
▁supernatural	-11.9072
▁pierced	-11.9072
▁OLD	-11.9073
▁Craig	-11.9073
▁assistant	-11.9073
▁louis	-11.9074
▁Fml	-11.9076
▁programs	-11.9077
▁Rev	-11.9077
▁Nov	-11.9078
hooo	-11.9081
▁render	-11.9088
▁gnite	-11.9092
vol	-11.9094
▁highway	-11.9094
▁span	-11.9097
▁bible	-11.9097
▁McC	-11.9099
aholic	-11.9101
▁Williams	-11.9102
▁sean	-11.9103
mac	-11.9103
▁invent	-11.9112
▁HK	-11.9115
call	-11.9115
▁skill	-11.912
▁continu	-11.912
▁perk	-11.9124
PD	-11.9126
▁wassup	-11.9128
▁Maine	-11.9131
▁eachother	-11.9136
▁gallery	-11.9136
▁grandfather	-11.9136
▁lesbian	-11.9136
▁pencil	-11.9136
▁tragedy	-11.9136
▁hairdresser	-11.9136
▁toddler	-11.9136
▁SOMEONE	-11.9136
▁salmon	-11.9136
▁Total	-11.9137
▁Burger	-11.9137
▁paycheck	-11.9138
▁tackle	-11.9139
▁ellen	-11.9141
▁Smart	-11.9141
uuuuuu	-11.9141
licious	-11.9143
▁lotion	-11.9144
▁buses	-11.9153
▁Dragon	-11.9153
▁nation	-11.9154
▁bald	-11.9156
▁Putt	-11.9158
isco	-11.9159
SO	-11.916
▁published	-11.9165
▁DOES	-11.9166
▁Paula	-11.9171
▁killers	-11.9173
OOOOOOO	-11.9175
▁clearing	-11.9176
▁approach	-11.9176
▁mowing	-11.9179
▁Broken	-11.9197
▁avail	-11.9201
▁Arizona	-11.9201
▁messenger	-11.9201
▁trampoline	-11.9201
▁stereo	-11.9201
▁MONDAY	-11.9201
▁Derby	-11.9201
▁stadium	-11.9201
▁Denmark	-11.9201
▁crystal	-11.9201
▁jessica	-11.9202
▁trivia	-11.9202
▁bleach	-11.9203
oso	-11.9203
▁irritated	-11.9204
▁mount	-11.9205
▁Click	-11.9206
▁mild	-11.9207
▁Pity	-11.9208
▁lappy	-11.9208
▁Log	-11.9208
▁Plz	-11.921
▁gin	-11.9213
▁Sept	-11.9214
▁waaaay	-11.9215
uzz	-11.9216
MIN	-11.9218
▁Asia	-11.9218
▁TRY	-11.9219
▁SEO	-11.922
05	-11.9224
▁Joel	-11.9227
▁bananas	-11.9231
▁CHI	-11.9235
▁Marketing	-11.9241
ote	-11.9242
▁GT	-11.9243
iiiiii	-11.9244
ule	-11.9247
▁slam	-11.9251
▁ehh	-11.9254
DoD	-11.9255
▁CRY	-11.926
rA	-11.9263
▁hut	-11.9265
▁Exciting	-11.9267
▁multiply	-11.9267
▁conflict	-11.9267
▁Daughter	-11.9267
▁Support	-11.9267
▁documentary	-11.9267
▁methinks	-11.9268
▁Voice	-11.9268
▁Dougie	-11.9269
▁smith	-11.9271
▁shark	-11.9273
▁CNN	-11.9275
▁intended	-11.9279
▁bab	-11.928
▁fitting	-11.9283
▁amaze	-11.9283
▁Into	-11.9283
▁jones	-11.9288
▁stir	-11.929
▁flop	-11.9292
lope	-11.9295
▁Prob	-11.9296
elia	-11.9305
▁Para	-11.9311
▁Steven	-11.9315
▁yuk	-11.932
▁Yah	-11.9323
▁Falling	-11.9323
MAN	-11.9323
▁Sittin	-11.9324
itive	-11.9324
▁CV	-11.9325
camp	-11.9328
▁jenn	-11.9328
▁Corn	-11.933
▁Mich	-11.933
▁Agh	-11.9331
uuuuuuuuuu	-11.9332
▁Tetris	-11.9332
▁apologies	-11.9332
▁nauseous	-11.9332
▁unknown	-11.9332
▁iMac	-11.9333
▁Usually	-11.9333
craft	-11.9333
▁airplane	-11.9333
▁splash	-11.9333
▁skipped	-11.9333
▁Normal	-11.9334
eration	-11.9335
▁decade	-11.9336
▁copies	-11.9338
▁Paper	-11.9341
▁formal	-11.9342
▁premier	-11.9342
▁McD	-11.9345
▁SMH	-11.935
▁boarding	-11.9351
▁crackers	-11.9353
▁88	-11.9355
wr	-11.9357
▁RED	-11.936
bound	-11.9362
HOP	-11.9363
▁Hop	-11.9364
47	-11.9365
▁veggies	-11.9365
▁checkin	-11.9367
▁wheels	-11.9368
▁purchased	-11.9369
▁Bot	-11.937
▁owww	-11.9373
▁eyebrows	-11.9378
rem	-11.9379
▁incident	-11.938
▁gap	-11.9381
far	-11.9383
rrrrrrrr	-11.9383
▁Howard	-11.9384
under	-11.9385
▁pinky	-11.9386
cord	-11.9391
▁PP	-11.9394
▁Euro	-11.9396
ono	-11.9396
▁mont	-11.9398
gggggggg	-11.9398
▁individual	-11.9399
▁DUDE	-11.9399
▁conclusion	-11.9399
▁Wrong	-11.9399
▁sleeeep	-11.9399
▁qualify	-11.9399
▁supplies	-11.9399
▁gawd	-11.9399
▁april	-11.9399
▁drummer	-11.9399
▁Pirate	-11.94
▁Nooooo	-11.9401
▁blogtv	-11.9401
▁fiction	-11.9402
▁Chance	-11.9402
▁MADE	-11.9403
aaaaaaaaa	-11.9404
▁knit	-11.9404
▁Write	-11.9405
▁Forever	-11.9407
▁Fur	-11.9413
▁brighter	-11.9413
▁commun	-11.9414
▁katy	-11.9416
▁Line	-11.9418
▁Missin	-11.9419
▁TC	-11.942
OOD	-11.9421
▁bench	-11.9421
▁pearl	-11.9423
oooooooooooooo	-11.9424
ssssss	-11.9424
▁peeling	-11.9424
▁sexual	-11.9425
▁Sum	-11.9429
tube	-11.9429
▁chai	-11.943
▁UI	-11.9434
anya	-11.9434
▁connecting	-11.9437
▁58	-11.9445
▁KL	-11.9446
▁69	-11.9452
▁Yee	-11.9454
▁shan	-11.9454
▁BK	-11.9455
▁billy	-11.9456
fc	-11.9462
heim	-11.9463
▁Lonely	-11.9465
▁pedicure	-11.9465
▁playoffs	-11.9465
▁teehee	-11.9466
▁Nathan	-11.9466
▁underwear	-11.9466
▁british	-11.9467
▁aussie	-11.9467
▁Bruce	-11.9467
▁Bobby	-11.9469
▁Oak	-11.9473
▁Whee	-11.9474
▁huhuhu	-11.9474
▁nearby	-11.9474
▁STAR	-11.9474
▁duper	-11.9477
▁hardware	-11.9478
▁cocktail	-11.9479
▁Round	-11.9481
▁JOB	-11.9483
▁focused	-11.9484
▁asthma	-11.9484
▁uhhh	-11.9485
▁invented	-11.9486
▁cooper	-11.949
▁cig	-11.9492
ONE	-11.9499
▁HUG	-11.9505
▁waaay	-11.9506
▁Wire	-11.9506
▁Bitch	-11.951
▁cozy	-11.951
▁Mars	-11.9515
▁ron	-11.9516
▁Used	-11.9517
▁woe	-11.952
bean	-11.9521
▁pretending	-11.9525
▁sadden	-11.9531
▁participate	-11.9532
▁Album	-11.9532
▁mushroom	-11.9532
▁unusual	-11.9532
▁civil	-11.9533
▁Retweet	-11.9534
APSo	-11.9535
▁cleared	-11.9535
▁Dress	-11.9537
▁COLD	-11.9537
▁warmer	-11.9538
▁newbie	-11.9538
illo	-11.9539
▁mocha	-11.9539
cum	-11.954
anger	-11.9548
▁fist	-11.9548
▁Speed	-11.9549
▁LOTS	-11.9549
eeeeeeeeee	-11.9558
▁gel	-11.9558
▁backwards	-11.956
▁chic	-11.9562
▁yaaa	-11.9563
ummy	-11.9564
AE	-11.9564
▁54	-11.9565
▁deli	-11.9565
KING	-11.9566
▁Human	-11.9572
▁sounding	-11.9572
LC	-11.9575
▁VM	-11.9576
USE	-11.9582
fm	-11.9583
lian	-11.9587
▁SB	-11.9594
▁51	-11.9595
east	-11.9598
▁Worried	-11.96
▁horizon	-11.96
▁arrival	-11.96
▁Tokyo	-11.96
▁ultra	-11.96
▁partay	-11.96
▁linux	-11.96
▁itouch	-11.96
▁directions	-11.9602
▁Zoe	-11.9603
▁logging	-11.9603
▁Urban	-11.9604
▁Supposed	-11.9607
▁disconnected	-11.9609
tunately	-11.9611
▁airline	-11.9612
▁PT	-11.9614
EM	-11.9615
▁organized	-11.9615
haha	-11.9617
▁trap	-11.9617
▁EST	-11.9618
▁WOOHOO	-11.9618
▁naturally	-11.9619
bility	-11.962
front	-11.9621
▁amounts	-11.9623
▁nig	-11.9627
▁gals	-11.9628
▁lind	-11.963
TF	-11.9634
hor	-11.9634
▁Mari	-11.9636
▁jim	-11.9638
▁Leo	-11.9642
▁swell	-11.9643
▁Study	-11.9644
▁Dee	-11.9645
count	-11.9646
▁hunger	-11.9647
▁900	-11.9649
▁MIL	-11.9653
imo	-11.9656
▁flippin	-11.9664
▁Hospital	-11.9668
▁Pittsburgh	-11.9668
▁midterm	-11.9668
▁implement	-11.9668
▁titanic	-11.9668
▁Field	-11.9668
▁dodgy	-11.9668
▁automatically	-11.9668
▁Captain	-11.9668
▁Daily	-11.9669
▁mayb	-11.9673
▁pleaseee	-11.9675
▁hawk	-11.9676
▁Planet	-11.9676
sphere	-11.9676
▁Goo	-11.9678
▁shove	-11.9678
▁Tower	-11.9678
▁dood	-11.9685
▁blasting	-11.9686
▁fatty	-11.9687
▁Said	-11.9687
▁Roman	-11.969
▁tourist	-11.9691
▁lump	-11.9692
▁choco	-11.9693
fla	-11.9694
▁hassle	-11.9695
▁dwn	-11.9697
tely	-11.9699
▁AHHHH	-11.9702
▁regularly	-11.9702
▁cheated	-11.9704
bid	-11.9704
▁lisa	-11.9707
▁Anne	-11.9707
▁Ban	-11.9715
▁Thing	-11.9717
fit	-11.972
▁Skin	-11.9722
OUT	-11.9723
fel	-11.9727
▁grat	-11.9734
▁deprived	-11.9736
▁exploring	-11.9736
▁houston	-11.9736
▁watermelon	-11.9736
▁jacob	-11.9736
▁sibling	-11.9736
▁Pearl	-11.9737
▁console	-11.9737
▁cyber	-11.9737
▁facial	-11.9737
very	-11.9739
▁crowded	-11.9739
▁leads	-11.9741
STER	-11.9742
24	-11.9742
▁Flat	-11.9743
▁spotted	-11.9743
▁jury	-11.9744
UUUU	-11.9752
▁AWWW	-11.9753
▁labor	-11.9754
▁dash	-11.9756
▁GPS	-11.9756
▁Andrea	-11.9757
uba	-11.976
▁Crash	-11.9762
▁lungs	-11.9762
▁unc	-11.9763
▁dozen	-11.9764
▁roots	-11.9766
▁begging	-11.9768
▁tested	-11.9769
▁hub	-11.977
ffe	-11.9773
▁Shane	-11.9773
▁served	-11.9774
eez	-11.9774
ahahahaha	-11.9776
▁disturb	-11.9781
▁vac	-11.9782
▁itching	-11.9782
▁vista	-11.9783
tron	-11.9784
▁Event	-11.9785
▁earned	-11.9788
▁accidently	-11.9789
▁roo	-11.979
llen	-11.9791
▁develop	-11.9792
▁dreamt	-11.9794
rib	-11.9796
▁icons	-11.98
▁Chemistry	-11.9805
▁GOODNIGHT	-11.9805
▁Penguin	-11.9805
▁Supernatural	-11.9805
▁flavour	-11.9805
▁tomarrow	-11.9806
▁happiest	-11.9806
▁Enough	-11.9806
▁shelter	-11.9806
▁rotten	-11.9806
▁Virginia	-11.9807
▁happ	-11.9807
▁jamie	-11.9807
▁Bryan	-11.9808
etic	-11.9809
▁Larry	-11.981
▁tmw	-11.9811
▁cube	-11.9813
▁movement	-11.9813
▁Gun	-11.9815
▁diner	-11.9816
round	-11.9821
▁flo	-11.9822
wall	-11.9822
▁Cooking	-11.9823
▁damp	-11.9827
▁rag	-11.9832
▁blur	-11.9835
▁Jeez	-11.9837
▁callin	-11.9837
▁smelly	-11.9837
▁Twitterville	-11.9839
▁Grill	-11.9839
RON	-11.9839
▁Merc	-11.9841
LLY	-11.9851
▁lool	-11.9858
bro	-11.986
tsu	-11.9866
▁introduce	-11.9875
▁Stewart	-11.9875
▁Success	-11.9875
▁devastated	-11.9875
▁ghetto	-11.9875
▁guarantee	-11.9875
▁animation	-11.9875
▁creature	-11.9875
▁Conference	-11.9875
▁permission	-11.9875
▁tweak	-11.9876
▁slipped	-11.9876
▁dragged	-11.9877
▁Leeds	-11.9878
▁pause	-11.9881
▁Tummy	-11.9881
▁MISSED	-11.9882
mag	-11.9884
III	-11.9885
▁profit	-11.9885
▁Dropped	-11.9885
▁Eee	-11.9886
▁ATT	-11.9886
▁Glen	-11.989
▁havn	-11.9896
▁cert	-11.9897
▁county	-11.9898
▁bail	-11.99
▁Coco	-11.99
power	-11.9904
pack	-11.9904
▁zzz	-11.9906
▁troll	-11.9907
▁leaked	-11.991
▁Havent	-11.991
▁crown	-11.9912
yard	-11.9914
▁LV	-11.9917
uper	-11.9918
mile	-11.992
▁Chat	-11.9922
dul	-11.9922
aahh	-11.9928
▁bg	-11.9931
▁CSS	-11.9936
▁squee	-11.9937
BR	-11.9938
▁MOTHER	-11.9941
▁speeding	-11.9942
▁achieve	-11.9943
▁Anthony	-11.9945
▁Tweeple	-11.9945
▁instrument	-11.9945
▁pattinson	-11.9945
▁receiving	-11.9945
▁reschedule	-11.9945
▁sensitive	-11.9945
▁subscription	-11.9945
▁Jeremy	-11.9945
▁Nevermind	-11.9945
▁deciding	-11.9945
▁safari	-11.9945
▁disabled	-11.9945
▁Senior	-11.9945
▁dairy	-11.9945
▁database	-11.9945
▁Marathon	-11.9945
▁puzzle	-11.9945
▁pokemon	-11.9945
▁chirp	-11.9946
▁grape	-11.9946
▁Setting	-11.9948
▁favour	-11.9948
phy	-11.9948
▁relatives	-11.9948
▁Question	-11.9949
▁hmph	-11.995
▁Gmail	-11.995
▁collar	-11.995
89	-11.9953
▁110	-11.9956
▁colleagues	-11.9956
▁vari	-11.9958
▁daw	-11.9958
rew	-11.9959
▁luke	-11.9962
duction	-11.9966
▁Clo	-11.9974
▁hehehehe	-11.9975
▁kel	-11.9976
ORD	-11.9977
▁Muse	-11.9979
▁ofcourse	-11.9979
▁fog	-11.998
trip	-11.998
▁php	-11.9984
▁YT	-11.9987
suit	-11.9988
polis	-11.999
▁kickin	-11.9992
▁techno	-11.9994
YYYYY	-11.9994
▁recipes	-11.9994
▁nana	-11.9994
▁fir	-12
▁Force	-12.0002
▁Bat	-12.0004
pppp	-12.0011
▁ENJOY	-12.0015
▁Honestly	-12.0015
▁Paranoid	-12.0015
▁President	-12.0015
▁destination	-12.0015
▁mixtape	-12.0015
▁singapore	-12.0015
▁encouragement	-12.0016
▁capture	-12.0017
JA	-12.0017
▁modern	-12.0018
▁noisy	-12.0018
▁Server	-12.0018
▁Bun	-12.0021
unning	-12.0022
▁Betty	-12.0022
▁Report	-12.0023
▁whoops	-12.0024
▁Board	-12.0025
pac	-12.0025
itan	-12.0026
cam	-12.0026
▁Share	-12.0028
▁nudge	-12.0029
▁nya	-12.0029
500	-12.003
▁YET	-12.0036
▁sonny	-12.0037
▁BROTHERS	-12.0037
▁Earl	-12.0041
▁redo	-12.0042
▁Stayed	-12.0042
▁Sadness	-12.0043
▁screening	-12.0046
▁pw	-12.0048
▁Creat	-12.0057
lix	-12.0058
16	-12.0058
eau	-12.006
▁goose	-12.0067
nick	-12.0068
▁retire	-12.0071
▁gab	-12.0072
▁punched	-12.0075
▁lalala	-12.0077
▁daniel	-12.0079
iko	-12.008
▁Mah	-12.0083
tay	-12.0083
ivity	-12.0083
▁edited	-12.0085
▁Crystal	-12.0086
▁Eclipse	-12.0086
▁Turkey	-12.0086
▁Verizon	-12.0086
▁envious	-12.0086
▁cotton	-12.0086
▁casino	-12.0086
▁grammar	-12.0086
▁HAIR	-12.0087
▁Subway	-12.0088
▁movin	-12.0088
▁blueberry	-12.0088
▁Ace	-12.0088
SM	-12.0089
▁humble	-12.009
▁artwork	-12.0091
▁hopeless	-12.0091
meter	-12.0092
▁Pics	-12.0093
▁Archie	-12.0096
▁WTH	-12.0097
▁rear	-12.01
WW	-12.01
ether	-12.011
▁03	-12.0111
▁banging	-12.0111
▁specially	-12.0112
▁wld	-12.0114
23	-12.0121
hhhhhhhh	-12.0126
▁kobe	-12.0126
▁bol	-12.0127
adi	-12.0132
▁hubs	-12.0134
▁Feed	-12.0137
urk	-12.0139
▁Yankees	-12.014
twitter	-12.0141
▁jammin	-12.0144
▁Deal	-12.0146
▁guts	-12.0148
▁applying	-12.0149
▁sticker	-12.0149
▁scaring	-12.0149
▁Twitterland	-12.0155
city	-12.0156
▁cardio	-12.0157
music	-12.0157
▁BYE	-12.0157
▁Adventure	-12.0158
▁Attempt	-12.0158
▁Lovato	-12.0158
▁ingredient	-12.0158
▁liquid	-12.0158
▁liquor	-12.0158
▁beyonce	-12.0158
▁britains	-12.0158
▁spectacular	-12.0158
▁Battle	-12.0158
▁william	-12.0159
▁Nikki	-12.016
▁expo	-12.016
▁OM	-12.016
▁robin	-12.0161
▁pac	-12.0162
▁fame	-12.0163
▁visitors	-12.0163
▁vic	-12.0164
▁dramatic	-12.0164
▁Rox	-12.0165
▁cider	-12.0165
▁inform	-12.0168
▁yayyyy	-12.0168
link	-12.0169
▁Winter	-12.017
▁Angeles	-12.017
▁Gave	-12.0175
▁Army	-12.018
▁FU	-12.018
charge	-12.0183
▁giggles	-12.0186
▁hooo	-12.0187
▁modem	-12.0189
▁NDu	-12.0189
▁sooon	-12.0189
▁lacking	-12.0193
▁nada	-12.0196
▁seal	-12.0198
ahah	-12.0203
iah	-12.0204
zilla	-12.0204
▁tasks	-12.021
Mo	-12.021
▁nik	-12.0211
AAAAAAAAA	-12.0217
abba	-12.022
▁scarf	-12.0224
sburg	-12.0224
▁nak	-12.0228
▁Surprise	-12.023
▁policy	-12.023
▁Dentist	-12.023
▁Finland	-12.023
▁Pissed	-12.023
▁Jade	-12.023
▁Pepper	-12.023
▁expectations	-12.0231
▁snooze	-12.0231
▁origin	-12.0231
▁permit	-12.0232
▁kiddies	-12.0232
▁hom	-12.0233
▁estate	-12.0235
▁OOO	-12.0236
▁GONE	-12.0236
▁breakdown	-12.0237
udo	-12.0238
▁insight	-12.0238
▁62	-12.0239
▁cept	-12.0239
▁tissues	-12.0239
kg	-12.0242
▁qual	-12.0247
▁penis	-12.0251
▁Price	-12.0251
▁Rap	-12.0256
illian	-12.0256
dnt	-12.0258
▁wiv	-12.0266
▁Boss	-12.0269
hawk	-12.0272
▁dyed	-12.0274
▁lex	-12.0274
▁storming	-12.0274
▁TB	-12.0275
▁offense	-12.0276
▁sept	-12.0277
▁sew	-12.0277
▁thrill	-12.0286
▁cass	-12.0286
rench	-12.0286
itation	-12.0287
▁94	-12.0287
ience	-12.0288
▁hahahha	-12.0289
▁crit	-12.0289
▁producer	-12.029
▁TIMES	-12.029
WAY	-12.0296
▁transform	-12.03
▁Barcelona	-12.0302
▁International	-12.0302
▁irritating	-12.0302
▁preparation	-12.0302
▁terror	-12.0302
▁butterfly	-12.0302
▁CHECK	-12.0302
▁violin	-12.0303
▁widget	-12.0303
club	-12.0303
▁debating	-12.0303
▁FOLLOWERS	-12.0303
▁heehee	-12.0303
▁Morgan	-12.0303
▁hobby	-12.0304
▁fluffy	-12.0305
▁circus	-12.0306
▁Molly	-12.0307
pur	-12.0307
▁definition	-12.0308
▁AWW	-12.0308
▁wendy	-12.0308
▁leon	-12.0309
▁Tommy	-12.0314
▁Diet	-12.0314
▁wuz	-12.0316
itty	-12.0318
▁advise	-12.0319
mission	-12.0319
TM	-12.032
hhhhhhhhh	-12.0325
▁Mia	-12.0328
▁Sur	-12.0329
▁engineer	-12.0331
gun	-12.0331
▁depending	-12.0334
▁fyi	-12.0337
▁Chase	-12.0337
▁psyched	-12.0338
▁Bike	-12.034
▁vou	-12.0341
▁Lookin	-12.0343
full	-12.0345
▁Calling	-12.0347
bone	-12.0348
▁coool	-12.035
▁Scar	-12.0352
▁tlk	-12.0354
▁crawling	-12.0355
▁Origin	-12.0355
gggggg	-12.0357
▁tipsy	-12.0358
▁np	-12.0361
▁01	-12.0366
▁HIS	-12.037
▁Brooke	-12.037
▁NOOOOO	-12.0372
▁TOM	-12.0373
▁kissed	-12.0375
▁Egypt	-12.0375
▁JEALOUS	-12.0375
▁glasgow	-12.0375
▁sarcastic	-12.0375
▁injection	-12.0375
▁Thnx	-12.0375
▁dried	-12.0375
▁Perez	-12.0376
▁steel	-12.0376
▁stitches	-12.0378
▁Ikea	-12.0378
▁Anytime	-12.0381
▁outdoors	-12.0385
▁JE	-12.0388
aaaaah	-12.0391
▁glo	-12.0393
vvv	-12.0394
aul	-12.0395
▁Rub	-12.0397
▁Ohhhh	-12.0397
▁couldve	-12.0398
▁waist	-12.04
▁shaved	-12.0401
nar	-12.0403
uka	-12.0408
care	-12.0412
▁WOOO	-12.0413
track	-12.0414
▁William	-12.0414
pants	-12.0416
▁originally	-12.0419
▁Doug	-12.0421
▁thousands	-12.0426
▁Warm	-12.0427
▁tidying	-12.0428
▁cocktails	-12.0433
▁chilli	-12.0434
▁rally	-12.0435
▁boooooo	-12.0438
▁Beck	-12.0439
▁Geek	-12.0444
▁description	-12.0448
▁overwhelmed	-12.0448
▁invisible	-12.0449
▁freelance	-12.0449
▁forehead	-12.0449
▁fabric	-12.045
▁ADD	-12.0452
22	-12.0454
▁shane	-12.0455
▁Singing	-12.0455
▁insert	-12.0456
▁blond	-12.0464
▁obv	-12.0466
▁chosen	-12.0467
66	-12.0473
▁FINAL	-12.0473
▁Monica	-12.0474
▁trim	-12.0474
▁zombies	-12.0478
media	-12.0479
▁nao	-12.0482
rot	-12.0482
▁depress	-12.0482
▁digg	-12.0484
▁chile	-12.0485
▁sooooooooo	-12.0493
▁Mitchel	-12.0494
▁Rush	-12.0498
▁Spin	-12.0505
▁Mode	-12.0511
▁Sale	-12.0511
ggghhh	-12.0514
▁nuthin	-12.0515
▁rug	-12.0515
▁Indy	-12.0516
▁JU	-12.0517
▁payday	-12.0519
ipe	-12.0522
▁Desperate	-12.0523
▁Memphis	-12.0523
▁System	-12.0523
▁registration	-12.0523
▁spongebob	-12.0523
▁temporary	-12.0523
▁treasure	-12.0523
▁verizon	-12.0523
▁recruit	-12.0523
▁Stomach	-12.0523
▁Tar	-12.0523
▁nonsense	-12.0523
▁module	-12.0523
▁drift	-12.0523
▁submitted	-12.0524
▁africa	-12.0524
▁Drunk	-12.0524
▁aaron	-12.0525
▁controller	-12.0526
▁Tay	-12.0527
▁HOLY	-12.0527
▁Golf	-12.0528
▁postcard	-12.0528
▁rockstar	-12.0529
scope	-12.053
▁Typ	-12.0532
▁rubber	-12.0532
▁litter	-12.0533
▁classroom	-12.0534
▁Marie	-12.0535
nig	-12.0536
▁finna	-12.0536
▁Cris	-12.0539
▁ohio	-12.0541
▁safety	-12.0545
▁Mandy	-12.0548
▁hoop	-12.0549
bridge	-12.0553
comp	-12.0554
▁mono	-12.0555
▁rumor	-12.0557
▁requires	-12.056
▁Shin	-12.056
▁chaos	-12.0562
▁debt	-12.0562
▁Kai	-12.0564
▁Tori	-12.0565
▁maid	-12.0568
▁feck	-12.0573
▁Bud	-12.0574
▁conditioning	-12.0579
▁lA	-12.0585
shit	-12.0589
▁reflect	-12.0591
▁Bug	-12.0593
▁Pur	-12.0595
▁encourage	-12.0596
▁Brisbane	-12.0597
▁eclipse	-12.0597
▁AWARDS	-12.0597
▁Husband	-12.0597
▁browsing	-12.0597
▁atlanta	-12.0597
▁awaits	-12.0597
▁affair	-12.0597
▁Dubai	-12.0597
▁nominated	-12.0597
▁Appreciate	-12.0597
▁Dylan	-12.0597
▁pamper	-12.0597
▁Court	-12.0597
▁powder	-12.0598
▁Country	-12.0598
▁Brighton	-12.0599
▁ooooo	-12.06
idge	-12.06
▁Crav	-12.0603
flow	-12.0603
▁thomas	-12.0608
▁inspirational	-12.061
RRRR	-12.0611
▁acid	-12.0619
▁Comic	-12.0621
mom	-12.0622
▁ditched	-12.0624
▁grip	-12.063
▁firm	-12.063
▁lor	-12.063
▁mandy	-12.0634
DDD	-12.0634
▁Cape	-12.0636
▁59	-12.0636
▁stickers	-12.0643
▁AIR	-12.0648
reck	-12.0649
▁Direct	-12.0649
▁dum	-12.0652
▁internal	-12.0654
▁YEAR	-12.0655
▁trace	-12.0655
▁wig	-12.0659
▁66	-12.0659
▁activate	-12.066
▁Taken	-12.0662
nished	-12.0665
UO	-12.0668
▁occasion	-12.0669
zzzzz	-12.0669
▁Birmingham	-12.0672
▁Happiness	-12.0672
▁creativity	-12.0672
▁espresso	-12.0672
▁Israel	-12.0672
▁Sophie	-12.0672
800	-12.0673
▁ironic	-12.0673
▁converse	-12.0673
▁lousy	-12.0674
▁squish	-12.0674
▁Cubs	-12.0674
▁Albert	-12.0674
▁glory	-12.0674
▁bookstore	-12.0675
▁restrict	-12.0676
HI	-12.0676
▁netball	-12.0676
▁knot	-12.0677
▁deaf	-12.0678
▁ranch	-12.0678
▁flea	-12.0679
▁weakness	-12.0679
▁benefits	-12.068
▁Trend	-12.068
anti	-12.0681
▁embarrassed	-12.0682
▁majority	-12.0682
▁Main	-12.0684
ppie	-12.0687
▁gnight	-12.0687
▁rope	-12.0688
▁Fever	-12.069
▁medium	-12.0692
▁zac	-12.0695
utter	-12.0697
▁tablets	-12.0697
▁Gran	-12.0697
aire	-12.0699
▁Hug	-12.0701
▁damaged	-12.0703
▁grim	-12.0704
▁pjs	-12.0706
▁beaten	-12.0708
▁Momma	-12.0708
loc	-12.0712
▁sniffles	-12.0713
kat	-12.0716
▁victoria	-12.072
▁sipping	-12.0722
▁Gall	-12.0733
horn	-12.0743
▁Sold	-12.0747
▁Filipino	-12.0748
▁december	-12.0748
▁unbelievable	-12.0748
▁Faith	-12.0748
▁bachelorette	-12.0748
▁bck	-12.0748
▁Julia	-12.0749
▁tuition	-12.0749
▁Batman	-12.075
▁Drake	-12.075
▁voicemail	-12.075
▁COMING	-12.0751
▁womp	-12.0751
▁2006	-12.0752
▁funnn	-12.0755
▁commentary	-12.0757
71	-12.0759
▁bloke	-12.0759
▁nanny	-12.0762
▁whee	-12.0762
▁strap	-12.0763
▁Arch	-12.0763
▁cities	-12.0764
▁homepage	-12.0764
▁County	-12.0764
▁weeds	-12.0765
▁retro	-12.0767
▁mentally	-12.077
▁alter	-12.0776
PER	-12.0777
▁snoo	-12.0783
▁Anti	-12.0784
▁improved	-12.0788
▁landing	-12.0793
▁quicker	-12.0794
▁rage	-12.0797
▁strangers	-12.0798
34	-12.08
▁Kir	-12.08
▁rape	-12.0802
▁Todd	-12.0803
haaa	-12.0807
▁Taste	-12.0807
▁Month	-12.0811
▁bumped	-12.0812
rnie	-12.0813
▁Jill	-12.0818
▁runnin	-12.0824
▁Obviously	-12.0824
▁Return	-12.0825
▁Heidi	-12.0825
▁immense	-12.0825
▁lovato	-12.0825
▁ALOT	-12.0825
▁squash	-12.0825
▁General	-12.0825
▁SAME	-12.0825
▁Hurry	-12.0826
▁finance	-12.0827
▁Single	-12.0827
ault	-12.0827
▁diving	-12.0827
abby	-12.0829
reat	-12.0829
▁flex	-12.083
▁unwell	-12.083
▁Karen	-12.083
▁NK	-12.0831
▁Thankfully	-12.0832
▁Spark	-12.0836
55	-12.0837
▁hittin	-12.0838
▁outcome	-12.0839
wire	-12.0841
▁prior	-12.0844
▁Wha	-12.0845
▁130	-12.0846
hang	-12.0848
▁distracting	-12.0849
EEEEEEEEE	-12.0852
▁stable	-12.0853
▁austin	-12.0854
▁insanely	-12.0859
▁smelling	-12.0864
▁homo	-12.0865
▁tracking	-12.0868
▁dining	-12.0871
▁wala	-12.0872
▁comeback	-12.0877
▁Hour	-12.0877
▁Hunt	-12.0878
▁kasi	-12.0879
ONG	-12.0887
logy	-12.0889
▁yg	-12.0889
▁Woooo	-12.0897
▁grant	-12.0898
rtle	-12.0901
LEY	-12.0901
▁Greetings	-12.0901
▁Simpson	-12.0901
▁engaged	-12.0901
▁organizing	-12.0901
▁Course	-12.0901
▁goddamn	-12.0901
▁political	-12.0901
▁loyal	-12.0901
▁Revising	-12.0902
▁grabbed	-12.0902
▁nvr	-12.0902
▁DEAD	-12.0902
▁kewl	-12.0903
▁TRYING	-12.0903
▁honour	-12.0903
▁react	-12.0905
▁strict	-12.0906
▁jackson	-12.0907
▁dent	-12.0907
▁Natalie	-12.0907
▁Poem	-12.0908
▁Johnson	-12.091
▁Outside	-12.091
▁ALONE	-12.092
▁END	-12.092
▁sulk	-12.092
cross	-12.0921
▁OP	-12.0923
▁cape	-12.0924
▁patiently	-12.0924
corn	-12.0926
zen	-12.0926
▁Ahaha	-12.0927
▁correction	-12.093
god	-12.0931
▁pom	-12.0932
izer	-12.0932
▁bonding	-12.0934
▁shelf	-12.0935
▁pea	-12.0937
▁Chee	-12.094
▁Fuzz	-12.094
fffff	-12.0944
bank	-12.0948
▁margaritas	-12.095
▁experienced	-12.0963
▁Flying	-12.0964
▁Suz	-12.0964
▁LATE	-12.0965
▁Mess	-12.0972
▁Anatomy	-12.0979
▁Spencer	-12.0979
▁Trailer	-12.0979
▁WRONG	-12.0979
▁collapse	-12.0979
▁nvm	-12.0979
▁spymaster	-12.0979
▁retreat	-12.0979
▁Theatre	-12.0979
▁Claire	-12.098
▁Praise	-12.0981
▁Grandpa	-12.0981
▁Self	-12.0981
▁candles	-12.0982
year	-12.0982
▁christian	-12.0982
▁deh	-12.0982
▁tnx	-12.0983
▁Proud	-12.0983
▁elsewhere	-12.0983
▁Upset	-12.0984
▁Shouldn	-12.0984
▁urgent	-12.0985
▁Julian	-12.0985
▁shred	-12.0987
▁marley	-12.0987
▁stephen	-12.0991
▁PHP	-12.0994
scribe	-12.0995
▁spoilers	-12.0995
▁Speaking	-12.1
▁PAIN	-12.1
▁distract	-12.1
▁developed	-12.1001
▁Luc	-12.1001
ener	-12.1002
gui	-12.1003
▁bradie	-12.1004
▁horn	-12.1007
coz	-12.1008
▁dearly	-12.1009
▁rig	-12.101
▁UT	-12.1011
▁coaster	-12.1014
look	-12.1015
▁twitted	-12.1016
▁Tweeters	-12.1021
here	-12.1027
▁meanie	-12.1031
store	-12.1032
▁mixing	-12.1035
gram	-12.1039
note	-12.1039
▁Eww	-12.1041
▁Heat	-12.1042
▁lamp	-12.1045
▁Shake	-12.1051
wish	-12.1052
joy	-12.1053
mobile	-12.1057
▁Belgium	-12.1057
▁Jennifer	-12.1057
▁butterflies	-12.1057
▁lonesome	-12.1057
▁revolution	-12.1057
▁tunnel	-12.1057
▁revenge	-12.1057
▁vehicle	-12.1057
▁perfume	-12.1057
▁succeed	-12.1057
▁KEEP	-12.1057
▁IMAX	-12.1057
▁reruns	-12.1058
▁gloves	-12.1058
▁lawyer	-12.1058
▁Pub	-12.1058
▁Helping	-12.1059
▁romance	-12.1059
▁irish	-12.106
▁YE	-12.106
▁OKAY	-12.1062
▁coco	-12.1063
▁Tele	-12.1064
▁Goood	-12.1064
CHE	-12.1064
▁Idea	-12.1064
▁Clearly	-12.1064
▁Sprint	-12.1065
▁expand	-12.1065
▁optimistic	-12.1068
inder	-12.1072
▁vines	-12.1076
▁disp	-12.1077
▁Chu	-12.1077
▁Charm	-12.1082
▁vibe	-12.1084
▁whine	-12.1085
▁Workin	-12.1085
good	-12.1085
▁leaf	-12.1086
isation	-12.109
▁fag	-12.1093
aaaaaaaaaaaaaaaa	-12.1098
▁Inc	-12.1099
▁thro	-12.1102
▁marsh	-12.1103
▁VS	-12.1104
DC	-12.1107
UMP	-12.1108
▁cher	-12.1109
▁stinky	-12.1112
▁knowww	-12.1112
▁witch	-12.1117
bay	-12.1121
▁Drop	-12.1121
stein	-12.113
▁mmmmmm	-12.1132
▁MIN	-12.1132
▁defend	-12.1134
▁crapp	-12.1135
▁Hilarious	-12.1136
▁explanation	-12.1136
▁hurricane	-12.1136
▁fierce	-12.1136
▁protein	-12.1136
▁whining	-12.1136
▁firmware	-12.1136
▁entries	-12.1136
▁cheeseburger	-12.1136
▁dvr	-12.1137
iza	-12.1137
▁THAN	-12.1137
▁venture	-12.1137
▁offering	-12.1138
▁unreal	-12.1139
▁foundation	-12.1141
▁crumb	-12.1144
▁oak	-12.1145
▁thn	-12.115
▁expression	-12.1155
▁Called	-12.1155
▁requested	-12.1156
77	-12.1156
▁congrat	-12.1157
▁hiring	-12.1161
▁MJ	-12.1163
▁pimple	-12.1171
nation	-12.1171
▁deny	-12.1173
▁xxxxxx	-12.1174
tica	-12.1178
▁psycho	-12.1179
▁relay	-12.1183
▁hmmmmm	-12.1183
wave	-12.1185
ogue	-12.1187
▁headline	-12.119
▁discussing	-12.1191
▁Ewww	-12.1194
▁heating	-12.1194
▁liter	-12.1196
▁ahha	-12.1197
▁tale	-12.1201
▁buu	-12.1205
▁Erin	-12.1208
mee	-12.121
fri	-12.1213
▁peel	-12.1213
▁JT	-12.1213
▁colored	-12.1214
▁Anniversary	-12.1215
▁Dollhouse	-12.1215
▁Greece	-12.1215
▁lebron	-12.1215
▁primary	-12.1215
▁thoroughly	-12.1215
▁sequel	-12.1215
▁thirty	-12.1215
▁jelous	-12.1215
▁Tesco	-12.1215
▁BROKE	-12.1215
▁bicycle	-12.1215
▁rumour	-12.1216
▁element	-12.1216
design	-12.1217
▁Harris	-12.1219
▁LUCKY	-12.1219
▁Juice	-12.1219
▁cupboard	-12.122
▁julie	-12.1221
▁mimi	-12.1222
▁soldier	-12.1224
▁symbol	-12.1224
mother	-12.1224
empt	-12.1226
▁Reply	-12.1227
▁Pac	-12.1227
▁geeky	-12.1233
▁delightful	-12.1234
EVER	-12.1236
rite	-12.1239
tiv	-12.1239
▁partial	-12.124
▁launched	-12.124
▁trippin	-12.1243
ography	-12.1244
▁Shock	-12.1244
▁ideal	-12.1245
▁infront	-12.1246
▁clicking	-12.1247
▁require	-12.1249
▁weep	-12.1249
▁92	-12.1251
▁julia	-12.1251
▁Natal	-12.1256
▁conv	-12.1258
▁pep	-12.1259
▁gotcha	-12.1263
▁crank	-12.1264
cccc	-12.1267
▁Musical	-12.1267
▁BOY	-12.127
▁rib	-12.1271
▁Annie	-12.1273
rien	-12.1275
▁plum	-12.1281
rose	-12.1282
▁cc	-12.1282
▁sniffle	-12.1285
▁Aye	-12.1293
▁Brew	-12.1295
▁Oregon	-12.1295
▁Physics	-12.1295
▁Stavros	-12.1295
▁deploy	-12.1295
▁Imagine	-12.1295
▁mechanic	-12.1295
▁tetris	-12.1295
▁Henry	-12.1295
▁seafood	-12.1295
▁consult	-12.1296
▁Oasis	-12.1296
▁Wordpress	-12.1296
▁detect	-12.1296
▁grapes	-12.1296
▁Message	-12.1296
▁cloth	-12.1296
▁jesse	-12.1297
▁Prison	-12.1298
▁Cherry	-12.1298
▁defense	-12.1298
▁locate	-12.1298
▁Collect	-12.1299
▁lifestyle	-12.13
▁VH	-12.13
▁Wit	-12.1302
▁property	-12.1303
▁preach	-12.1304
▁tourney	-12.1306
zza	-12.1306
▁becuz	-12.1306
▁taxes	-12.1309
▁Hip	-12.131
▁Fear	-12.1312
inary	-12.1317
▁yip	-12.1321
▁nem	-12.1321
▁spice	-12.1323
▁merch	-12.1328
▁santa	-12.133
▁Oct	-12.1331
▁meantime	-12.1331
hug	-12.1334
▁Carrie	-12.1334
▁LB	-12.1336
▁haul	-12.1338
▁Canon	-12.1338
▁lou	-12.134
ggers	-12.1345
WE	-12.1349
OOOOOOOOOOOOOOOO	-12.1349
▁420	-12.1349
▁spank	-12.1356
TL	-12.1357
▁lg	-12.1358
▁LG	-12.1359
▁Peru	-12.1361
dging	-12.1364
▁secretly	-12.1365
wash	-12.137
▁zo	-12.1373
▁anticipat	-12.1374
▁PERFECT	-12.1376
▁argentina	-12.1376
▁cottage	-12.1376
▁Daisy	-12.1376
▁jungle	-12.1376
▁wizard	-12.1376
▁inviting	-12.1376
▁Spotify	-12.1376
▁Madrid	-12.1376
▁cowboy	-12.1377
▁roadtrip	-12.1377
▁branch	-12.1378
▁Kenny	-12.1379
▁fanfic	-12.1379
▁bbm	-12.1379
▁prank	-12.1381
▁achievement	-12.1381
▁Whi	-12.1382
▁Kisses	-12.1383
▁stung	-12.1383
▁lurk	-12.1384
▁MR	-12.1384
▁Lay	-12.1389
▁Wayne	-12.1392
Con	-12.1392
▁Alaska	-12.1394
TON	-12.1395
▁huuu	-12.1398
dress	-12.1399
▁funds	-12.1399
▁Counting	-12.14
96	-12.1404
▁dreaded	-12.1404
▁arghh	-12.1405
▁PCD	-12.1408
▁twitterworld	-12.141
▁Hav	-12.1414
▁Flip	-12.1415
▁Cast	-12.1419
▁Cash	-12.1419
▁mop	-12.143
▁FRIEND	-12.1431
▁rated	-12.1431
even	-12.1433
▁breed	-12.1433
▁dissapoint	-12.1438
▁select	-12.1439
▁Sen	-12.1441
oise	-12.1446
rrrrrrr	-12.145
▁majorly	-12.1453
etti	-12.1454
force	-12.1457
▁ALMOST	-12.1457
▁Episode	-12.1457
▁HUNGRY	-12.1457
▁Netflix	-12.1457
▁equipment	-12.1457
▁festivities	-12.1457
▁violence	-12.1457
▁warranty	-12.1457
▁HAPPEN	-12.1457
▁resolve	-12.1457
▁throbbing	-12.1457
▁Expect	-12.1458
▁refund	-12.1458
▁SAID	-12.1458
▁Midnight	-12.1458
▁glitch	-12.1458
either	-12.1458
▁errr	-12.1458
▁prospect	-12.1459
▁Hangin	-12.1459
▁mellow	-12.1459
▁Series	-12.1461
▁MOTHERS	-12.1462
▁SIMS	-12.1462
▁pollen	-12.1463
Box	-12.1463
▁LETS	-12.1465
▁Chip	-12.1468
▁cache	-12.1469
▁GE	-12.147
▁stall	-12.1471
▁Uploading	-12.1474
▁Typical	-12.1474
▁crop	-12.1475
watch	-12.1476
▁lean	-12.1477
▁marc	-12.1477
PC	-12.1478
▁rb	-12.1481
TTER	-12.1482
▁diaper	-12.1483
▁dodge	-12.1484
85	-12.1488
▁wiki	-12.1491
▁coffe	-12.1493
▁tym	-12.1494
anga	-12.1497
▁gamer	-12.1498
▁cabin	-12.1498
▁kissing	-12.1502
▁Wolf	-12.1503
▁pug	-12.1506
ancy	-12.1506
▁rumors	-12.1507
▁Mat	-12.1512
▁reaching	-12.1523
NNN	-12.1523
▁cred	-12.1527
▁shizz	-12.1529
OUR	-12.1529
▁damm	-12.153
weee	-12.1534
▁Pictures	-12.1536
▁BELIEVE	-12.1539
▁EARLY	-12.1539
▁Housewives	-12.1539
▁Pandora	-12.1539
▁Republic	-12.1539
▁nostalgic	-12.1539
▁indonesia	-12.1539
▁LEAVE	-12.1539
▁conditioner	-12.1539
▁CLASS	-12.1539
▁TRUE	-12.1539
▁Simple	-12.154
▁Banana	-12.154
▁notifications	-12.154
▁derby	-12.1541
▁TWIT	-12.1541
▁READY	-12.1542
▁johnny	-12.1542
▁Kristin	-12.1543
▁Yawn	-12.1543
▁bawl	-12.1544
▁DMB	-12.1544
▁penny	-12.1545
▁potty	-12.1548
▁snowing	-12.1552
▁deposit	-12.1558
▁Host	-12.1559
fair	-12.156
▁sesh	-12.1571
KIN	-12.1573
Day	-12.1574
▁fluid	-12.1579
▁jose	-12.158
▁shiz	-12.1581
▁floating	-12.1581
▁TJ	-12.1582
▁Count	-12.1582
▁Agree	-12.1588
▁searched	-12.1588
▁introduc	-12.159
▁manga	-12.1591
▁THOUGH	-12.1592
▁deeply	-12.1597
nlimited	-12.1598
▁interact	-12.1607
98	-12.1609
ologist	-12.161
▁jumper	-12.1613
▁screamed	-12.1616
tec	-12.1616
▁XO	-12.162
▁BRAZIL	-12.1622
▁Ghostbusters	-12.1622
▁Insomnia	-12.1622
▁Possibly	-12.1622
▁REPLY	-12.1622
▁Society	-12.1622
▁Zombie	-12.1622
▁experiencing	-12.1622
▁nonetheless	-12.1622
▁philosophy	-12.1622
▁scooter	-12.1622
▁wrestling	-12.1622
▁Gordon	-12.1622
▁Answer	-12.1622
▁Dreading	-12.1622
▁Russell	-12.1622
▁pussy	-12.1622
▁Bugger	-12.1622
▁Buffy	-12.1622
▁Outlook	-12.1623
▁aloud	-12.1623
▁FUNNY	-12.1623
▁Buddy	-12.1623
▁Jogging	-12.1624
▁Eve	-12.1624
▁blunt	-12.1625
▁dental	-12.1626
smith	-12.1626
▁teary	-12.1628
▁sheesh	-12.1631
▁neglecting	-12.1633
▁Pastor	-12.1633
▁Bond	-12.1635
▁Horse	-12.1636
▁Headin	-12.1637
HAHAHAH	-12.1642
▁hopping	-12.1646
▁jamming	-12.1646
shoot	-12.1654
rag	-12.1656
▁enuf	-12.1657
ffff	-12.1659
▁Pot	-12.1663
▁pancake	-12.1663
fro	-12.1664
▁verse	-12.1664
hall	-12.1665
▁Deli	-12.167
▁flush	-12.1674
▁bord	-12.1677
page	-12.1677
▁Heck	-12.1678
▁Picking	-12.168
▁BG	-12.1682
vv	-12.1683
▁Mikey	-12.1684
illi	-12.1684
iri	-12.1685
bun	-12.1686
bri	-12.1688
▁pj	-12.1693
▁mami	-12.1695
▁Disco	-12.1699
nstalling	-12.1705
▁Library	-12.1705
▁MAGIC	-12.1705
▁Strawberry	-12.1705
▁buffalo	-12.1705
▁perspective	-12.1705
▁possibility	-12.1705
▁unlucky	-12.1705
▁Kitchen	-12.1705
▁Updating	-12.1705
▁spears	-12.1705
▁daisy	-12.1705
▁Oscar	-12.1705
▁SUNDAY	-12.1705
▁Butter	-12.1705
▁template	-12.1706
▁preorder	-12.1706
▁altho	-12.1706
▁imagination	-12.1706
▁Hola	-12.1707
▁blurry	-12.1707
▁shaving	-12.1708
▁Iowa	-12.1708
▁scout	-12.1708
▁FOOD	-12.1709
▁BLESS	-12.1709
▁tanned	-12.1709
▁Clear	-12.1712
▁NEWS	-12.1712
▁regretting	-12.1712
▁Allison	-12.1714
▁Comment	-12.1715
▁yeeee	-12.1715
▁priceless	-12.1716
▁mtg	-12.1716
▁ihop	-12.1717
▁FAR	-12.1718
▁93	-12.1718
▁Lib	-12.1719
aahhh	-12.172
▁overrated	-12.172
▁entering	-12.1721
▁reject	-12.1721
▁perry	-12.1725
▁Spot	-12.1729
▁pumpkin	-12.1733
▁kink	-12.1734
▁Forum	-12.1734
▁gown	-12.1737
▁Hook	-12.1738
plain	-12.1746
▁Yumm	-12.1749
▁Tough	-12.175
▁afterall	-12.1752
▁Mun	-12.1753
▁Hours	-12.1753
▁Sonny	-12.1757
wear	-12.1759
aaaaaaaaaa	-12.176
▁logic	-12.1761
yyyyyyyyyyy	-12.1761
hahhaha	-12.1762
TIME	-12.1766
▁ATM	-12.1773
RP	-12.1774
▁hp	-12.1776
▁Chili	-12.1778
▁sneaky	-12.1779
▁practical	-12.1781
tttttt	-12.1782
▁summa	-12.1783
▁fade	-12.1787
▁livin	-12.1788
▁Xoxo	-12.1788
▁WORST	-12.1789
▁context	-12.1789
▁corporate	-12.1789
▁Mcfly	-12.1789
▁vegetable	-12.1789
▁racist	-12.1789
▁courtesy	-12.1789
▁UPDATE	-12.1789
▁backstage	-12.1789
▁feather	-12.1789
▁overdue	-12.179
▁humour	-12.179
theworld	-12.1791
▁impact	-12.1791
▁sailing	-12.1791
▁78	-12.1792
▁fru	-12.1797
▁Smh	-12.1797
▁Odd	-12.1798
▁relaxation	-12.1799
▁Bright	-12.1799
wich	-12.1802
▁penguins	-12.1802
▁Grow	-12.1804
▁Moo	-12.1805
▁supp	-12.1808
▁Chem	-12.1808
awn	-12.181
▁Scared	-12.1811
▁Cole	-12.1816
▁Carr	-12.1816
▁backpack	-12.1817
▁puffy	-12.1819
wwwwwwwwwww	-12.182
▁Promise	-12.1822
▁juz	-12.1824
▁riot	-12.1824
▁outlook	-12.1828
uuuuuuuu	-12.1829
▁highest	-12.1835
▁mistaken	-12.1837
hehehe	-12.1837
mpa	-12.1838
▁Rocky	-12.1838
▁expir	-12.1841
▁shaped	-12.1846
▁enuff	-12.1847
▁retard	-12.1856
SSS	-12.1859
kkkkk	-12.1867
▁HAHAH	-12.187
▁Antonio	-12.1874
▁BREAK	-12.1874
▁medication	-12.1874
▁arguing	-12.1874
▁earphones	-12.1874
▁Chloe	-12.1874
▁overseas	-12.1874
▁remake	-12.1874
▁SMILE	-12.1874
▁Alpha	-12.1874
▁underneath	-12.1874
▁sophie	-12.1875
▁Fact	-12.1876
▁dutch	-12.1877
▁straw	-12.1877
▁Ashton	-12.1877
▁tyler	-12.1877
▁scoop	-12.1877
▁shuttle	-12.1877
▁heartburn	-12.1878
▁commission	-12.1879
▁GOSH	-12.188
▁shorten	-12.1883
▁530	-12.189
▁boa	-12.189
OSE	-12.1894
isin	-12.1894
▁accepting	-12.1895
▁whatcha	-12.1895
▁loove	-12.1895
fh	-12.19
▁Frankie	-12.1902
▁Tara	-12.1904
▁adopted	-12.1904
▁bom	-12.1905
▁rod	-12.1905
▁beaches	-12.1906
▁marina	-12.1906
▁witty	-12.1907
▁Track	-12.1909
▁Thi	-12.1915
▁cheeky	-12.1916
▁Site	-12.1918
▁wrecked	-12.1921
▁retweeting	-12.1927
▁darker	-12.1931
ege	-12.1933
▁Yall	-12.1935
▁jr	-12.1935
▁Fill	-12.1937
▁Nate	-12.194
rush	-12.194
▁extend	-12.194
iNG	-12.1941
▁gloom	-12.1942
OOOOOOOO	-12.1944
boro	-12.1947
▁Hunter	-12.1952
ended	-12.1954
▁relaxin	-12.1954
talia	-12.1956
▁BEA	-12.1959
▁SOMETHING	-12.1959
▁appetite	-12.1959
▁Bailey	-12.1959
▁fulfill	-12.1959
▁Control	-12.1959
▁quizzes	-12.1959
▁spelt	-12.1959
▁nachos	-12.1959
▁exceed	-12.1959
▁exhibition	-12.196
▁staple	-12.1961
▁Blessings	-12.1961
▁fringe	-12.1961
▁maintain	-12.1961
▁Extra	-12.1961
▁Poker	-12.1961
▁struck	-12.1962
▁absent	-12.1962
▁Candy	-12.1964
▁MBP	-12.1967
▁sowwy	-12.1967
▁omgosh	-12.1968
▁baha	-12.1968
▁hose	-12.1969
nyt	-12.197
poemi	-12.197
YE	-12.1971
OUS	-12.1973
▁Holla	-12.1981
▁Surf	-12.1981
▁Manage	-12.1982
▁agony	-12.1989
▁peed	-12.1989
▁Seen	-12.1993
▁PLS	-12.1993
▁placement	-12.1994
▁rlly	-12.1997
▁Snap	-12.2005
▁Digg	-12.2006
▁hahahahahaha	-12.2011
▁pon	-12.2022
▁accomplish	-12.2023
▁cola	-12.2027
▁CRA	-12.2032
▁drivin	-12.2037
▁Cav	-12.2039
▁Dick	-12.2039
▁britt	-12.2041
▁Beauty	-12.2045
▁Elizabeth	-12.2045
▁Spirit	-12.2045
▁banquet	-12.2045
▁category	-12.2045
▁communicate	-12.2045
▁compatible	-12.2045
▁miserably	-12.2045
▁portrait	-12.2045
▁technique	-12.2045
▁temporarily	-12.2045
▁GaGa	-12.2046
▁unloved	-12.2046
▁Alyssa	-12.2046
▁sleeeeep	-12.2046
▁ulcer	-12.2046
▁Cell	-12.2046
▁kettle	-12.2046
▁twitterfon	-12.2046
▁Connect	-12.2047
▁Shawn	-12.2047
▁rented	-12.2048
▁compil	-12.205
▁Swedish	-12.205
▁Everton	-12.2051
ulat	-12.2052
▁rox	-12.2054
▁confession	-12.2054
▁household	-12.2054
▁ramen	-12.2054
▁Thr	-12.2055
▁flame	-12.2055
new	-12.2056
▁yday	-12.2056
▁Foot	-12.2056
▁groom	-12.2058
ITY	-12.206
LF	-12.2062
▁smoked	-12.2065
UND	-12.2066
▁Pure	-12.2068
fill	-12.2072
▁Davis	-12.2075
HHHHHHH	-12.2083
ALLY	-12.2084
▁Celtics	-12.2085
▁brat	-12.2087
▁reasonable	-12.2087
▁Dodgers	-12.2089
▁reverse	-12.2092
umber	-12.2094
▁lala	-12.2096
▁fanta	-12.2098
bab	-12.21
▁compete	-12.2109
▁deffo	-12.211
▁yang	-12.212
▁dean	-12.2121
▁DAD	-12.2122
▁Spe	-12.2125
EX	-12.213
▁mannn	-12.2131
▁630	-12.2132
▁Laundry	-12.2132
▁Magazine	-12.2132
▁redbull	-12.2132
▁ubuntu	-12.2132
▁unavailable	-12.2132
▁domestic	-12.2132
▁Public	-12.2133
▁unfort	-12.2133
▁terminal	-12.2133
▁commence	-12.2133
aoPS	-12.2134
▁Lucas	-12.2134
▁grease	-12.2135
▁buggy	-12.2135
▁Review	-12.2136
▁Number	-12.2137
▁Kra	-12.2138
▁Drama	-12.2139
▁Completely	-12.2139
▁Atleas	-12.2142
▁Ack	-12.2146
▁HR	-12.2149
▁Jump	-12.2149
▁snip	-12.215
▁grub	-12.2152
▁cole	-12.2152
▁manila	-12.2153
▁lung	-12.2165
free	-12.2171
▁donation	-12.2177
▁Tune	-12.2178
▁whooo	-12.2181
▁rawr	-12.2186
▁LY	-12.2188
riot	-12.2195
qq	-12.2197
▁yarn	-12.2197
▁YM	-12.2203
▁PLZ	-12.2204
▁googled	-12.2213
▁File	-12.2218
▁CANNOT	-12.222
▁EXACTLY	-12.222
▁Hamilton	-12.222
▁MAJOR	-12.222
▁Murray	-12.222
▁Portugal	-12.222
▁bittersweet	-12.222
▁dinosaur	-12.222
▁tribute	-12.222
▁grief	-12.222
▁badminton	-12.222
▁jinx	-12.222
▁schoool	-12.222
▁juicy	-12.222
▁denied	-12.222
▁LEFT	-12.222
▁Account	-12.222
▁Spears	-12.222
▁Junior	-12.222
▁upgrading	-12.222
▁splint	-12.222
▁psychology	-12.2221
▁foto	-12.2221
▁robbed	-12.2221
▁Program	-12.2221
▁skateboard	-12.2221
▁HIGH	-12.2221
▁captain	-12.2221
▁copyright	-12.2222
▁ikea	-12.2222
▁WiFi	-12.2223
▁promoting	-12.2225
▁define	-12.2227
▁Dying	-12.2228
▁Kindle	-12.2228
▁Duck	-12.2229
▁flipping	-12.2229
▁Helen	-12.2231
▁Twe	-12.2236
▁instantly	-12.2236
▁leno	-12.2238
▁Trent	-12.2242
▁chow	-12.2243
igan	-12.225
▁native	-12.2252
▁clash	-12.2258
ooooooooooooooo	-12.2267
▁chuckle	-12.2278
▁MAY	-12.2283
▁united	-12.2285
360	-12.2288
▁mikey	-12.229
▁oooooo	-12.2295
▁PROM	-12.2299
▁laser	-12.2302
aaaan	-12.2307
maro	-12.2308
▁Baltimore	-12.2309
▁sacrifice	-12.2309
▁vinyl	-12.2309
▁sunbathe	-12.2309
▁Vanessa	-12.2309
▁abroad	-12.2309
▁NNN	-12.2309
▁MONEY	-12.2309
▁MONTH	-12.2309
▁Kingdom	-12.2309
▁trauma	-12.231
▁Shirt	-12.2311
▁Parade	-12.2311
▁foward	-12.2312
▁heather	-12.2314
▁loner	-12.2317
▁Coach	-12.2319
▁quitting	-12.232
guard	-12.2322
iddle	-12.2323
▁Barry	-12.2323
▁hosp	-12.2326
▁equally	-12.2327
▁stab	-12.2327
▁latin	-12.2328
▁chillax	-12.233
▁gasp	-12.2337
▁Britt	-12.234
▁developing	-12.234
▁Dani	-12.2343
▁skint	-12.2347
▁casting	-12.2349
▁gahhh	-12.235
MENT	-12.2352
▁pier	-12.2353
▁Mostly	-12.2353
▁lace	-12.2353
weet	-12.236
▁Cover	-12.2364
fie	-12.2364
cade	-12.2365
▁finishes	-12.2369
▁provider	-12.237
▁NET	-12.2377
▁TEA	-12.2378
▁Cher	-12.238
aiden	-12.2381
▁nih	-12.2383
38	-12.2387
▁READ	-12.2398
▁Bristol	-12.2398
▁ESPN	-12.2398
▁archuleta	-12.2398
▁increasing	-12.2398
▁arrested	-12.2398
▁encounter	-12.2398
▁helmet	-12.2398
▁Android	-12.2398
▁Kansas	-12.2398
▁bargain	-12.2398
▁Soccer	-12.2398
bul	-12.2398
titute	-12.2398
▁assassin	-12.2398
▁flawless	-12.2399
▁STAY	-12.2399
▁supermarket	-12.24
▁jerry	-12.24
▁anywho	-12.2402
▁Woman	-12.2402
lude	-12.2403
▁Latin	-12.2403
▁polo	-12.2404
▁LM	-12.2404
▁Cass	-12.2405
▁Lit	-12.2406
▁sadder	-12.2419
▁brandon	-12.2426
▁bark	-12.2428
▁ross	-12.243
▁vlog	-12.243
▁Burnt	-12.2431
29	-12.2431
baby	-12.2433
▁ROCKS	-12.2434
▁Colin	-12.2437
MC	-12.2441
▁donnie	-12.2443
will	-12.2444
▁slacking	-12.2447
▁Roo	-12.2451
▁57	-12.2453
cop	-12.2456
▁Tickets	-12.2459
▁CJ	-12.2459
▁160	-12.247
▁Eng	-12.2471
▁EC	-12.2472
mania	-12.2477
▁Tina	-12.2482
espite	-12.2482
▁cram	-12.2484
▁Elliot	-12.2488
▁PEACE	-12.2488
▁coincidence	-12.2488
▁frustration	-12.2488
▁phoenix	-12.2488
▁terrific	-12.2488
▁dreary	-12.2488
▁diploma	-12.2488
▁withdrawl	-12.2488
▁Pacific	-12.2488
▁Swimming	-12.2488
▁courage	-12.2488
▁CMT	-12.2488
▁Multi	-12.2489
▁Cancer	-12.2489
▁Spider	-12.2489
▁Delicious	-12.2489
▁wag	-12.249
▁mutual	-12.249
▁rehab	-12.2491
▁BLAH	-12.2491
▁NM	-12.2493
▁seeds	-12.2497
▁Bali	-12.2498
▁radar	-12.2498
▁ouchie	-12.2498
▁Around	-12.2504
▁Casey	-12.2506
hehe	-12.2506
▁Shot	-12.2509
LESS	-12.251
▁yummmm	-12.2512
titude	-12.2521
▁margarita	-12.2522
▁Training	-12.2538
▁ditto	-12.2539
49	-12.2544
▁McDonald	-12.255
▁Bron	-12.2551
▁lb	-12.2555
▁COD	-12.2556
uase	-12.2558
VO	-12.2565
▁temple	-12.2571
▁housemate	-12.2573
▁Bare	-12.2574
▁rebel	-12.2575
▁obnoxious	-12.2579
AEdega	-12.2579
▁BEFORE	-12.2579
▁Restaurant	-12.2579
▁Tiffany	-12.2579
▁Waffle	-12.2579
▁lettuce	-12.2579
▁minimum	-12.2579
▁spencer	-12.2579
▁polite	-12.2579
▁Cullen	-12.2579
▁productivity	-12.2579
▁pepsi	-12.2579
▁somthing	-12.2579
▁Legend	-12.258
▁agency	-12.258
▁giddy	-12.2581
▁Thailand	-12.2581
▁HEAD	-12.2581
▁SURE	-12.2581
▁FAT	-12.2581
▁Model	-12.2581
▁kidnap	-12.2583
comm	-12.2585
▁Lori	-12.2587
▁Ear	-12.2587
▁pixel	-12.2588
▁Activ	-12.2589
▁Cody	-12.2592
▁Toast	-12.2592
▁tripped	-12.2596
▁86	-12.2602
▁latter	-12.2604
▁madre	-12.2609
▁Fry	-12.262
▁sadface	-12.2622
▁xxxxxxxxxx	-12.2628
▁BJ	-12.2637
uga	-12.2638
▁teenage	-12.2639
ZE	-12.264
▁eventful	-12.2642
▁choke	-12.2643
▁Relax	-12.2646
▁Mariah	-12.2646
▁Deep	-12.2652
▁charming	-12.2652
▁JC	-12.2653
▁Sac	-12.2659
AAAAA	-12.2661
▁surprising	-12.2663
rawl	-12.2667
▁Depends	-12.2671
▁Fantasy	-12.2671
▁Veronica	-12.2671
▁atmosphere	-12.2671
▁hammock	-12.2671
▁painkillers	-12.2671
▁veronica	-12.2671
▁injuries	-12.2671
▁instructions	-12.2671
▁Dirty	-12.2671
▁enemy	-12.2671
▁whistle	-12.2671
▁Machine	-12.2671
▁Yellow	-12.2671
▁cherries	-12.2671
▁submission	-12.2671
▁whiskey	-12.2671
▁eager	-12.2671
▁Biology	-12.2672
▁gooooood	-12.2672
▁fetch	-12.2673
▁Bacon	-12.2673
▁facing	-12.2674
▁Dumb	-12.2677
▁WORKING	-12.2677
▁hawt	-12.2678
▁Scottish	-12.2678
▁Kirk	-12.2679
▁BUY	-12.2681
▁Chef	-12.2683
▁waving	-12.2683
▁creation	-12.2685
IF	-12.2689
▁meetup	-12.2689
▁Lemon	-12.2693
▁driveway	-12.2693
▁Lesson	-12.2695
▁pear	-12.2695
ubbing	-12.2696
▁perfection	-12.2699
▁xxxxxxxx	-12.2703
▁liar	-12.2708
▁HW	-12.2709
▁fel	-12.2709
▁SOOOOO	-12.2709
▁Naw	-12.2712
▁affected	-12.2713
broke	-12.2715
▁dreadful	-12.2718
▁EW	-12.2719
acle	-12.2727
TTT	-12.2733
▁Bomb	-12.2733
▁simon	-12.274
▁formula	-12.2741
▁drawer	-12.2746
▁performed	-12.2763
▁nerdy	-12.2763
▁Bubble	-12.2763
▁Orleans	-12.2763
▁charlotte	-12.2763
▁cleveland	-12.2763
▁matthew	-12.2763
▁archive	-12.2763
▁anyhow	-12.2763
▁Athens	-12.2764
▁SERIOUSLY	-12.2764
▁Iraq	-12.2764
▁Lounge	-12.2764
▁judging	-12.2764
▁Yorkshire	-12.2764
TIN	-12.2764
EZ	-12.2765
▁DEMI	-12.2765
▁bobby	-12.2766
▁protection	-12.2767
▁feast	-12.2767
▁ought	-12.2767
▁noticing	-12.2767
▁HSM	-12.2769
▁Gokey	-12.2771
▁lease	-12.2772
▁coldplay	-12.2774
▁tierd	-12.2774
▁Nature	-12.2774
▁beaut	-12.2777
wirl	-12.2777
ippy	-12.2777
▁Nation	-12.2777
▁Color	-12.2778
IZ	-12.2778
▁dint	-12.2788
▁granted	-12.2788
▁Shine	-12.2791
▁arghhh	-12.2791
▁hahahahah	-12.2792
▁birdie	-12.2795
▁parental	-12.2797
▁Kong	-12.2799
▁introduced	-12.2803
▁Gig	-12.2805
▁LP	-12.2807
ador	-12.2809
▁martini	-12.2809
▁THING	-12.2811
▁greeting	-12.2815
▁Spec	-12.2816
▁uggh	-12.282
quire	-12.2821
▁Rad	-12.2826
holic	-12.2827
▁hoooo	-12.2828
▁Aaah	-12.283
▁Speak	-12.2833
▁hyped	-12.2835
▁pow	-12.2835
position	-12.2839
▁loudly	-12.2843
▁Sue	-12.2851
▁Fil	-12.2852
▁Grrrrr	-12.2853
▁bully	-12.2856
▁WHOO	-12.2857
▁Desktop	-12.2857
▁McFLY	-12.2857
▁accurate	-12.2857
▁fountain	-12.2857
▁unbelievably	-12.2857
▁Custom	-12.2857
▁Flowers	-12.2857
▁generous	-12.2857
▁pigeon	-12.2857
▁Factory	-12.2857
▁Southern	-12.2857
▁keynote	-12.2857
▁puppet	-12.2857
▁glitter	-12.2857
▁Madison	-12.2858
▁tesco	-12.2858
▁plugged	-12.2858
▁verb	-12.2858
▁dublin	-12.2858
model	-12.2859
[...]
